{
  "version": "1.0",
  "truncation": null,
  "padding": null,
  "added_tokens": [
    {
      "id": 0,
      "content": "[UNK]",
      "single_word": false,
      "lstrip": false,
      "rstrip": false,
      "normalized": false,
      "special": true
    },
    {
      "id": 1,
      "content": "[CLS]",
      "single_word": false,
      "lstrip": false,
      "rstrip": false,
      "normalized": false,
      "special": true
    },
    {
      "id": 2,
      "content": "[SEP]",
      "single_word": false,
      "lstrip": false,
      "rstrip": false,
      "normalized": false,
      "special": true
    },
    {
      "id": 3,
      "content": "[PAD]",
      "single_word": false,
      "lstrip": false,
      "rstrip": false,
      "normalized": false,
      "special": true
    },
    {
      "id": 4,
      "content": "[MASK]",
      "single_word": false,
      "lstrip": false,
      "rstrip": false,
      "normalized": false,
      "special": true
    }
  ],
  "normalizer": null,
  "pre_tokenizer": {
    "type": "Whitespace"
  },
  "post_processor": null,
  "decoder": null,
  "model": {
    "type": "BPE",
    "dropout": null,
    "unk_token": "[UNK]",
    "continuing_subword_prefix": null,
    "end_of_word_suffix": null,
    "fuse_unk": false,
    "byte_fallback": false,
    "ignore_merges": false,
    "vocab": {
      "[UNK]": 0,
      "[CLS]": 1,
      "[SEP]": 2,
      "[PAD]": 3,
      "[MASK]": 4,
      "!": 5,
      "\"": 6,
      "#": 7,
      "%": 8,
      "&": 9,
      "'": 10,
      "(": 11,
      ")": 12,
      "*": 13,
      "+": 14,
      ",": 15,
      "-": 16,
      ".": 17,
      "/": 18,
      "0": 19,
      "1": 20,
      "2": 21,
      "3": 22,
      "4": 23,
      "5": 24,
      "6": 25,
      "7": 26,
      "8": 27,
      "9": 28,
      ":": 29,
      ";": 30,
      "<": 31,
      "=": 32,
      ">": 33,
      "?": 34,
      "@": 35,
      "A": 36,
      "B": 37,
      "C": 38,
      "D": 39,
      "E": 40,
      "F": 41,
      "G": 42,
      "H": 43,
      "I": 44,
      "J": 45,
      "K": 46,
      "L": 47,
      "M": 48,
      "N": 49,
      "O": 50,
      "P": 51,
      "R": 52,
      "S": 53,
      "T": 54,
      "U": 55,
      "V": 56,
      "W": 57,
      "X": 58,
      "Y": 59,
      "Z": 60,
      "[": 61,
      "\\": 62,
      "]": 63,
      "_": 64,
      "a": 65,
      "b": 66,
      "c": 67,
      "d": 68,
      "e": 69,
      "f": 70,
      "g": 71,
      "h": 72,
      "i": 73,
      "j": 74,
      "k": 75,
      "l": 76,
      "m": 77,
      "n": 78,
      "o": 79,
      "p": 80,
      "q": 81,
      "r": 82,
      "s": 83,
      "t": 84,
      "u": 85,
      "v": 86,
      "w": 87,
      "x": 88,
      "y": 89,
      "z": 90,
      "{": 91,
      "|": 92,
      "}": 93,
      "←": 94,
      "↑": 95,
      "↖": 96,
      "in": 97,
      "st": 98,
      "int": 99,
      "16": 100,
      "at": 101,
      "on": 102,
      "((": 103,
      ");": 104,
      "con": 105,
      "const": 106,
      "iz": 107,
      "ize": 108,
      "wl": 109,
      "size": 110,
      "de": 111,
      "it": 112,
      "or": 113,
      "))": 114,
      "er": 115,
      "al": 116,
      "ar": 117,
      "00": 118,
      "dat": 119,
      "le": 120,
      "pe": 121,
      "ist": 122,
      "for": 123,
      "ty": 124,
      "type": 125,
      "++": 126,
      "data": 127,
      "im": 128,
      "pr": 129,
      "om": 130,
      "wl1": 131,
      "_type": 132,
      "data_type": 133,
      "tim": 134,
      "time": 135,
      "ic": 136,
      "en": 137,
      "++)": 138,
      "ag": 139,
      "re": 140,
      "stat": 141,
      "ma": 142,
      "dist": 143,
      "wl2": 144,
      "nl": 145,
      "ou": 146,
      "se": 147,
      "c2": 148,
      "iter": 149,
      "nj": 150,
      "];": 151,
      "omp": 152,
      "c4": 153,
      "//": 154,
      "be": 155,
      "of": 156,
      "lo": 157,
      "end": 158,
      "-(": 159,
      "nk": 160,
      "id": 161,
      "(&": 162,
      "ge": 163,
      "lu": 164,
      "clu": 165,
      "clude": 166,
      "if": 167,
      "15": 168,
      "rc": 169,
      "no": 170,
      "c3": 171,
      "ew": 172,
      "ed": 173,
      "src": 174,
      "-((": 175,
      "-((-(": 176,
      "));": 177,
      "ble": 178,
      "loc": 179,
      "dou": 180,
      "double": 181,
      "prag": 182,
      "pragma": 183,
      "c1": 184,
      "nm": 185,
      "include": 186,
      "wl1size": 187,
      "us": 188,
      "sec": 189,
      "status": 190,
      "te": 191,
      "go": 192,
      "v_": 193,
      "tv_": 194,
      "node": 195,
      "0000": 196,
      "nodes": 197,
      "?((": 198,
      "wl2size": 199,
      "new": 200,
      "art": 201,
      "la": 202,
      "start": 203,
      "alloc": 204,
      "init": 205,
      "un": 206,
      "sizeof": 207,
      "ra": 208,
      "malloc": 209,
      "bel": 210,
      "label": 211,
      "par": 212,
      "static": 213,
      "][": 214,
      "fre": 215,
      "free": 216,
      "<=": 217,
      "ain": 218,
      "ch": 219,
      "again": 220,
      "goagain": 221,
      "ni": 222,
      "inde": 223,
      "index": 224,
      ")))": 225,
      "nindex": 226,
      "idx": 227,
      "ver": 228,
      "rit": 229,
      "dst": 230,
      "ur": 231,
      "sp": 232,
      "vo": 233,
      "void": 234,
      "nlist": 235,
      "tex": 236,
      "vertex": 237,
      "ph": 238,
      "ad": 239,
      "pri": 240,
      "==": 241,
      "gra": 242,
      "?-((-(": 243,
      "CL": 244,
      "ECL": 245,
      "graph": 246,
      "ECLgraph": 247,
      "get": 248,
      "edge": 249,
      "beg": 250,
      "atom": 251,
      "atomic": 252,
      "nt": 253,
      "ei": 254,
      "(((": 255,
      "val": 256,
      "new_": 257,
      "ity": 258,
      "ret": 259,
      "ority": 260,
      "priority": 261,
      "urn": 262,
      "return": 263,
      "LL": 264,
      "NU": 265,
      "NULL": 266,
      "ay": 267,
      "alle": 268,
      "paralle": 269,
      "parallel": 270,
      "_vertex": 271,
      "day": 272,
      "usec": 273,
      "timeof": 274,
      "tv_sec": 275,
      "tv_usec": 276,
      "gettimeof": 277,
      "gettimeofday": 278,
      "],": 279,
      "an": 280,
      "gh": 281,
      "10000": 282,
      "print": 283,
      "run": 284,
      "runtime": 285,
      "eigh": 286,
      "1000000": 287,
      "min": 288,
      "di": 289,
      "included": 290,
      "ent": 291,
      "is": 292,
      "++;": 293,
      "printf": 294,
      "!=": 295,
      "iterat": 296,
      "wh": 297,
      "(\"": 298,
      "_n": 299,
      "])": 300,
      "\",": 301,
      "ru": 302,
      "Re": 303,
      "max": 304,
      "ile": 305,
      "crit": 306,
      "ical": 307,
      "critical": 308,
      "ss": 309,
      "up": 310,
      "while": 311,
      "her": 312,
      "ount": 313,
      "_new": 314,
      "ial": 315,
      "parent": 316,
      "initial": 317,
      "def": 318,
      "new_dist": 319,
      "_vertex_": 320,
      "ion": 321,
      "ce": 322,
      "edges": 323,
      "count": 324,
      "ug": 325,
      "here": 326,
      "initialize": 327,
      "Bug": 328,
      "ct": 329,
      "(*": 330,
      "--": 331,
      "sim": 332,
      "ex": 333,
      "mp": 334,
      "simd": 335,
      "))))": 336,
      "Read": 337,
      "minv": 338,
      "eweigh": 339,
      "eweight": 340,
      "do": 341,
      "atomicRead": 342,
      "ep": 343,
      "rep": 344,
      "12": 345,
      "rite": 346,
      "temp": 347,
      "*)": 348,
      "Write": 349,
      "wlsize": 350,
      "atomicWrite": 351,
      "critical_": 352,
      "ruct": 353,
      "ray": 354,
      "il": 355,
      "typedef": 356,
      "digo": 357,
      "struct": 358,
      "array": 359,
      "indigo": 360,
      "timeval": 361,
      "lock": 362,
      "indigo_": 363,
      "maxval": 364,
      "ions": 365,
      "updat": 366,
      "&&": 367,
      "and": 368,
      "]);": 369,
      "ace": 370,
      "iterations": 371,
      "Race": 372,
      "RaceBug": 373,
      "mis": 374,
      "lost": 375,
      "cc": 376,
      "bf": 377,
      "sssp": 378,
      "bfs": 379,
      "exclude": 380,
      "am": 381,
      "ol": 382,
      "su": 383,
      "var": 384,
      "arep": 385,
      "edx": 386,
      "(-": 387,
      "()": 388,
      "?-(": 389,
      "yn": 390,
      "dec": 391,
      "CP": 392,
      "CPU": 393,
      "set": 394,
      "?(-": 395,
      "MA": 396,
      "_edge": 397,
      "brep": 398,
      "?-(-": 399,
      "MAX": 400,
      "ide": 401,
      "decide": 402,
      "decided": 403,
      "cnt": 404,
      "excluded": 405,
      "th": 406,
      "len": 407,
      "as": 408,
      "new_label": 409,
      "mor": 410,
      "main": 411,
      "((((": 412,
      "undecided": 413,
      "100": 414,
      "status_n": 415,
      "chan": 416,
      "_vertex_omp": 417,
      "change": 418,
      "til": 419,
      "until": 420,
      "iterate": 421,
      "more": 422,
      "changes": 423,
      ")]": 424,
      "bor": 425,
      "status_new": 426,
      "add": 427,
      "neigh": 428,
      "neighbor": 429,
      ">=": 430,
      "AP": 431,
      "SW": 432,
      "SWAP": 433,
      "ool": 434,
      "ch_": 435,
      "ched": 436,
      "updated": 437,
      "bool": 438,
      "sched": 439,
      "schedu": 440,
      "stdi": 441,
      "stdio": 442,
      "schedule": 443,
      "dyn": 444,
      "amic": 445,
      "dynamic": 446,
      "arg": 447,
      "et": 448,
      "el": 449,
      "fal": 450,
      "counter": 451,
      "false": 452,
      "nd": 453,
      "omp_": 454,
      "]=": 455,
      "))?((": 456,
      "_vertex_data": 457,
      "----": 458,
      "->": 459,
      "_add": 460,
      "fet": 461,
      "and_add": 462,
      "ch_and_add": 463,
      "fetch_and_add": 464,
      "ri": 465,
      "fin": 466,
      "tru": 467,
      "true": 468,
      "_edge_": 469,
      "arrays": 470,
      "(){": 471,
      "find": 472,
      "||": 473,
      "read": 474,
      "else": 475,
      "dist_new": 476,
      "rom": 477,
      "dist_n": 478,
      "++){": 479,
      "cur": 480,
      "upd": 481,
      "countervar": 482,
      "curr": 483,
      "128": 484,
      "critical_max": 485,
      "_lock": 486,
      "list": 487,
      "std": 488,
      "ork": 489,
      "))?(((": 490,
      "orklist": 491,
      "the": 492,
      "ine": 493,
      "ing": 494,
      "();": 495,
      "13": 496,
      "ask": 497,
      "ass": 498,
      "task": 499,
      "sum": 500,
      "500": 501,
      "]])": 502,
      "mst": 503,
      "wei": 504,
      "worklist": 505,
      "c0": 506,
      "ck": 507,
      "ate": 508,
      "critical_min": 509,
      "IN": 510,
      "all": 511,
      "*/": 512,
      "/*": 513,
      "19": 514,
      "um": 515,
      "update": 516,
      "vate": 517,
      "private": 518,
      "mrep": 519,
      "Rep": 520,
      "findRep": 521,
      "_MAX": 522,
      "_edge_omp": 523,
      "T_MAX": 524,
      "INT_MAX": 525,
      "ve": 526,
      "to": 527,
      "define": 528,
      "argc": 529,
      "argv": 530,
      "87": 531,
      "ib": 532,
      "label_n": 533,
      "label_new": 534,
      "from": 535,
      "ound": 536,
      "+=": 537,
      "found": 538,
      "nex": 539,
      "ill": 540,
      "--------": 541,
      "mst_": 542,
      "next": 543,
      "(((((": 544,
      "c8": 545,
      "set_lock": 546,
      "ment": 547,
      "pass": 548,
      "tid": 549,
      "block": 550,
      "sou": 551,
      "rce": 552,
      "source": 553,
      "=%": 554,
      "lement": 555,
      "step": 556,
      "distan": 557,
      "steps": 558,
      "distance": 559,
      "sh": 560,
      "over": 561,
      "such": 562,
      "num": 563,
      "tar": 564,
      "indigo_cc": 565,
      "indigo_sssp": 566,
      "indigo_bfs": 567,
      "CPUcc": 568,
      "CPUsssp": 569,
      "CPUbfs": 570,
      "target": 571,
      "element": 572,
      "))));": 573,
      "map": 574,
      "out": 575,
      "c5": 576,
      "team": 577,
      "123": 578,
      "teams": 579,
      "eck": 580,
      "lib": 581,
      "check": 582,
      "ync": 583,
      "stdlib": 584,
      "Mi": 585,
      "Sync": 586,
      "ter": 587,
      "xSync": 588,
      "pre": 589,
      "char": 590,
      "MixSync": 591,
      "MixSyncBug": 592,
      "lt": 593,
      "WL": 594,
      "yb": 595,
      "887": 596,
      "99": 597,
      "ir": 598,
      "tsteps": 599,
      "(%": 600,
      "CA": 601,
      "elements": 602,
      "test": 603,
      "end1": 604,
      "critical_CA": 605,
      "cc_vertex_data": 606,
      "sssp_vertex_data": 607,
      "prev": 608,
      "critical_CAS": 609,
      ")\\": 610,
      "has": 611,
      "deter": 612,
      "mine": 613,
      "%%": 614,
      "1f": 615,
      "7123": 616,
      "MP": 617,
      "OMP": 618,
      "pend": 619,
      "indigo_mis": 620,
      "13887": 621,
      "(%.": 622,
      "hash": 623,
      "determine": 624,
      "%%)\\": 625,
      "712313887": 626,
      "OMPmis": 627,
      "ive": 628,
      "_edge_data": 629,
      "bu": 630,
      "depend": 631,
      "pol": 632,
      "ice": 633,
      "ribu": 634,
      "yben": 635,
      "polyben": 636,
      "c15": 637,
      "ared": 638,
      "[])": 639,
      "ert": 640,
      "shared": 641,
      "10": 642,
      "vice": 643,
      "device": 644,
      "distribu": 645,
      "distribute": 646,
      "\");": 647,
      "]]": 648,
      "ait": 649,
      "tof": 650,
      "wait": 651,
      "end2": 652,
      "start1": 653,
      "start2": 654,
      "indigo_bfs_vertex_omp": 655,
      "CPUbfs_vertex": 656,
      "tofrom": 657,
      "::": 658,
      "assert": 659,
      "tri": 660,
      "one": 661,
      "thread": 662,
      "indigo_cc_vertex_omp": 663,
      "indigo_sssp_vertex_omp": 664,
      "CPUcc_vertex": 665,
      "CPUsssp_vertex": 666,
      "irst": 667,
      ")))))": 668,
      ")))));": 669,
      "num_": 670,
      "]))": 671,
      "first": 672,
      "))))?((": 673,
      "bfs_vertex_data": 674,
      "arri": 675,
      "20": 676,
      "Live": 677,
      "_count": 678,
      "fill": 679,
      "who": 680,
      "lockBug": 681,
      "]=%": 682,
      "arrier": 683,
      "LivelockBug": 684,
      "jo": 685,
      "join": 686,
      "c9": 687,
      "32": 688,
      "fo": 689,
      "cond": 690,
      "omp_un": 691,
      "29": 692,
      "_t": 693,
      "ak": 694,
      "tr": 695,
      "str": 696,
      ")[": 697,
      "Count": 698,
      "]))))": 699,
      "bre": 700,
      "gsize": 701,
      "g_count": 702,
      "hi": 703,
      "non": 704,
      "tc": 705,
      "wn": 706,
      "second": 707,
      "sect": 708,
      "beg1": 709,
      "beg2": 710,
      "gher": 711,
      "1000": 712,
      "neighbors": 713,
      "mst_first": 714,
      "mst_second": 715,
      "indigo_mis_vertex_omp": 716,
      "OMPmis_vertex": 717,
      "triCount": 718,
      "whose": 719,
      "foo": 720,
      "try": 721,
      "break": 722,
      "higher": 723,
      "triCounting": 724,
      "65": 725,
      "ction": 726,
      "omp_set_lock": 727,
      "omp_unset_lock": 728,
      "Ad": 729,
      "ong": 730,
      "criticalAd": 731,
      "criticalAdd": 732,
      "long": 733,
      "){": 734,
      "barrier": 735,
      "_vertex_pass": 736,
      "mis_vertex_pass": 737,
      "Line": 738,
      "ut": 739,
      "(\"%": 740,
      "taskwait": 741,
      "Bla": 742,
      "ase": 743,
      "c7": 744,
      "co": 745,
      "resu": 746,
      "//+": 747,
      "nkLine": 748,
      "c10": 749,
      "----------------": 750,
      "polybench_": 751,
      "BlankLine": 752,
      "result": 753,
      "50": 754,
      "es": 755,
      "pa": 756,
      "du": 757,
      "sing": 758,
      "xa": 759,
      "ation": 760,
      "are": 761,
      "48": 762,
      "au": 763,
      "--;": 764,
      "))?(((((": 765,
      "49": 766,
      "]+": 767,
      "ea": 768,
      "der": 769,
      "sublock": 770,
      "addlock": 771,
      "55": 772,
      "]],": 773,
      "pro": 774,
      "[-": 775,
      "]!=": 776,
      "single": 777,
      "base": 778,
      "cor": 779,
      "lf": 780,
      "lck": 781,
      "oy": 782,
      "ror": 783,
      "tmp": 784,
      "still": 785,
      "destr": 786,
      "destroy": 787,
      "64": 788,
      "63": 789,
      "eit": 790,
      "l0": 791,
      "l1": 792,
      "ly": 793,
      "either": 794,
      "25": 795,
      "200": 796,
      "In": 797,
      "_block": 798,
      "(((((((": 799,
      "57": 800,
      "89": 801,
      "timer": 802,
      "low": 803,
      "100000": 804,
      "((((((": 805,
      "omp_init": 806,
      "omp_destroy": 807,
      "section": 808,
      "Th": 809,
      "mat": 810,
      ")));": 811,
      "?((((": 812,
      "threads": 813,
      "mar": 814,
      "put": 815,
      "][-": 816,
      "sum1": 817,
      "lower": 818,
      "omp_init_lock": 819,
      "omp_destroy_lock": 820,
      "mark": 821,
      "ha": 822,
      "ue": 823,
      "inout": 824,
      "cess": 825,
      "60": 826,
      "MIN": 827,
      "fprintf": 828,
      "oi": 829,
      "u1": 830,
      "atoi": 831,
      "its": 832,
      "error": 833,
      "127": 834,
      "barrier_": 835,
      ",(": 836,
      "61": 837,
      "_size": 838,
      "ccess": 839,
      "unk": 840,
      "stder": 841,
      "this": 842,
      "130": 843,
      "190": 844,
      "each": 845,
      "_block_size": 846,
      "stderr": 847,
      "21": 848,
      "27": 849,
      "_data": 850,
      "_array": 851,
      "ker": 852,
      "nel": 853,
      "op": 854,
      "ot": 855,
      "own": 856,
      "was": 857,
      ")),(": 858,
      "++]": 859,
      "self": 860,
      "best": 861,
      "nown": 862,
      "alloc_data": 863,
      "_num": 864,
      "])(": 865,
      "initially": 866,
      "(*)[": 867,
      "indigo_mst": 868,
      "indigo_tc": 869,
      "cc_edge_data": 870,
      "sssp_edge_data": 871,
      "CPUmst": 872,
      "CPUtc": 873,
      "stdbool": 874,
      "ckag": 875,
      "indigo_cc_edge_omp": 876,
      "indigo_sssp_edge_omp": 877,
      "CPUcc_edge": 878,
      "CPUsssp_edge": 879,
      "polybench": 880,
      "polybench_alloc_data": 881,
      "packag": 882,
      "ault": 883,
      "have": 884,
      "unknown": 885,
      "kernel": 886,
      "Access": 887,
      "Iss": 888,
      "Me": 889,
      "ible": 890,
      "vis": 891,
      "cted": 892,
      "mory": 893,
      "num_threads": 894,
      "Issue": 895,
      "Memory": 896,
      "visible": 897,
      "(+": 898,
      "(-(": 899,
      ")++]": 900,
      "?(-(": 901,
      "[(*": 902,
      "fl": 903,
      "nor": 904,
      "neither": 905,
      "os": 906,
      "remain": 907,
      "redu": 908,
      "lock_t": 909,
      "?-(-(": 910,
      "that": 911,
      "omp_lock_t": 912,
      "sum0": 913,
      "indigo_bfs_edge_omp": 914,
      "CPUbfs_edge": 915,
      "indigo_mis_edge_omp": 916,
      "OMPmis_edge": 917,
      "other": 918,
      "(+:": 919,
      "flag": 920,
      "remaining": 921,
      "reduction": 922,
      "pected": 923,
      "**": 924,
      "18": 925,
      "187": 926,
      "53": 927,
      "67": 928,
      "69": 929,
      "94": 930,
      "com": 931,
      "won": 932,
      "164": 933,
      "res": 934,
      "159": 935,
      "120": 936,
      "bfs_edge_data": 937,
      "133": 938,
      "xa1": 939,
      "xa2": 940,
      ",\"": 941,
      "by": 942,
      "file": 943,
      "xx": 944,
      "yy": 945,
      "expected": 946,
      "omp_get": 947,
      "71": 948,
      "IZ": 949,
      "MS": 950,
      "[%": 951,
      "ap": 952,
      "c6": 953,
      "done": 954,
      "ff": 955,
      "fib": 956,
      "l2": 957,
      "mon": 958,
      "si": 959,
      "u2": 960,
      "ul": 961,
      "inWL": 962,
      "lush": 963,
      "))))))": 964,
      ")))))))": 965,
      "decl": 966,
      "num_teams": 967,
      "sections": 968,
      "--------------------------------": 969,
      "polybench_timer": 970,
      "packages": 971,
      "common": 972,
      "IZE": 973,
      "MSIZE": 974,
      "polybench_timer_": 975,
      "-=": 976,
      "]*": 977,
      "]+=": 978,
      "flo": 979,
      "pat": 980,
      "race": 981,
      "default": 982,
      "ild": 983,
      "pair": 984,
      "Thread": 985,
      "float": 986,
      "11": 987,
      "1st": 988,
      "23": 989,
      "2nd": 990,
      "83": 991,
      "Mu": 992,
      "Un": 993,
      "])))": 994,
      "bp": 995,
      "f1": 996,
      "ken": 997,
      "stdou": 998,
      "unction": 999,
      "criticalRead": 1000,
      "updateUn": 1001,
      "498": 1002,
      "core": 1003,
      "omp_get_": 1004,
      "fflush": 1005,
      "path": 1006,
      "stdout": 1007,
      "updateUndecided": 1008,
      "39": 1009,
      "59": 1010,
      "81": 1011,
      "able": 1012,
      "alc": 1013,
      "//#": 1014,
      "154": 1015,
      "193": 1016,
      "197": 1017,
      "cop": 1018,
      "14": 1019,
      "521": 1020,
      "No": 1021,
      "Set": 1022,
      "Score": 1023,
      "]++;": 1024,
      "est": 1025,
      "input": 1026,
      "int64": 1027,
      "izer": 1028,
      "indexSet": 1029,
      "token": 1030,
      "blocks": 1031,
      "output": 1032,
      "thread_num": 1033,
      "code": 1034,
      "match": 1035,
      "omp_get_thread_num": 1036,
      "int64_t": 1037,
      ")/": 1038,
      "499": 1039,
      "Len": 1040,
      "function": 1041,
      "use": 1042,
      "child": 1043,
      "_nest": 1044,
      "))))?": 1045,
      "1285": 1046,
      "999": 1047,
      "(!": 1048,
      "..": 1049,
      "51": 1050,
      "512": 1051,
      "From": 1052,
      "Worklist": 1053,
      "ber": 1054,
      "call": 1055,
      "cap": 1056,
      "hea": 1057,
      "i2": 1058,
      "live": 1059,
      "scop": 1060,
      "itial": 1061,
      "rect": 1062,
      "reset": 1063,
      "init_array": 1064,
      "vertexes": 1065,
      "print_array": 1066,
      "dir": 1067,
      "ame": 1068,
      "updateFrom": 1069,
      "Include": 1070,
      "Initial": 1071,
      "indigo_mst_vertex_omp": 1072,
      "indigo_mst_edge_omp": 1073,
      "indigo_tc_vertex_omp": 1074,
      "indigo_tc_edge_omp": 1075,
      "CPUtc_vertex": 1076,
      "CPUtc_edge": 1077,
      "kernel_": 1078,
      ",\"\\": 1079,
      "declare": 1080,
      "tokenizer": 1081,
      "_nest_lock": 1082,
      "header": 1083,
      "updateFromWorklist": 1084,
      "De": 1085,
      "LE": 1086,
      "_path": 1087,
      "dx": 1088,
      "dy": 1089,
      "gn": 1090,
      "iable": 1091,
      "ke": 1092,
      "sa": 1093,
      "vs": 1094,
      "inc": 1095,
      "consum": 1096,
      "istd": 1097,
      "imp": 1098,
      "unistd": 1099,
      "rand": 1100,
      "2013": 1101,
      "duc": 1102,
      "math": 1103,
      "Initialize": 1104,
      "17": 1105,
      "2lf": 1106,
      "37": 1107,
      "73": 1108,
      "85": 1109,
      "Al": 1110,
      "Be": 1111,
      "Dat": 1112,
      "comp": 1113,
      "calc": 1114,
      "mm": 1115,
      "myb": 1116,
      "npro": 1117,
      "r_": 1118,
      "};": 1119,
      "stop": 1120,
      ");;": 1121,
      "des": 1122,
      "dere": 1123,
      "ith": 1124,
      "ordere": 1125,
      "loop": 1126,
      "newS": 1127,
      "diag": 1128,
      "old": 1129,
      "numNo": 1130,
      "threadprivate": 1131,
      "string": 1132,
      "barrier_wait": 1133,
      "flag_t": 1134,
      "sign": 1135,
      "Mult": 1136,
      "keep": 1137,
      "incr_": 1138,
      "Data": 1139,
      "mybarrier": 1140,
      "nprod": 1141,
      "ordered": 1142,
      "numNodes": 1143,
      "20000": 1144,
      "].": 1145,
      "gen": 1146,
      "mu": 1147,
      "tp": 1148,
      "uold": 1149,
      "write": 1150,
      "with": 1151,
      "x_block_size": 1152,
      "y_block_size": 1153,
      "inLen": 1154,
      "]=((": 1155,
      "sum2": 1156,
      "utation": 1157,
      "correct": 1158,
      "2000": 1159,
      "Threads": 1160,
      "computation": 1161,
      "';": 1162,
      ")*": 1163,
      "Done": 1164,
      "Er": 1165,
      "End": 1166,
      "MY": 1167,
      "St": 1168,
      "aco": 1169,
      "bi": 1170,
      "ess": 1171,
      "f0": 1172,
      "fer": 1173,
      "hread": 1174,
      "ire": 1175,
      "jaco": 1176,
      "nsteps": 1177,
      "ness": 1178,
      "pus": 1179,
      "sj": 1180,
      "will": 1181,
      "construct": 1182,
      "ence": 1183,
      "real": 1184,
      "rection": 1185,
      "not": 1186,
      "local": 1187,
      "phase": 1188,
      "nthread": 1189,
      "direction": 1190,
      "_name": 1191,
      "criticalWrite": 1192,
      "argum": 1193,
      "numThreads": 1194,
      "))))?((((": 1195,
      "aux": 1196,
      "corpus": 1197,
      "file_name": 1198,
      "matchScore": 1199,
      "LEN": 1200,
      "correctness": 1201,
      "Error": 1202,
      "MYLEN": 1203,
      "ference": 1204,
      "jacobi": 1205,
      "argument": 1206,
      "\"))": 1207,
      ").": 1208,
      ".\\": 1209,
      "54": 1210,
      "Var": 1211,
      "ai": 1212,
      "can": 1213,
      "fault": 1214,
      "ful": 1215,
      "gth": 1216,
      "mo": 1217,
      "nE": 1218,
      "so": 1219,
      "spe": 1220,
      "z_block_size": 1221,
      "ization": 1222,
      "erate": 1223,
      "arity": 1224,
      "reference": 1225,
      "][(-": 1226,
      "pha": 1227,
      "ilarity": 1228,
      "vars": 1229,
      "length": 1230,
      "add_": 1231,
      "number": 1232,
      "995": 1233,
      "num_vars": 1234,
      "firstprivate": 1235,
      "produc": 1236,
      "used": 1237,
      "Start": 1238,
      "real8": 1239,
      "Variable": 1240,
      "spec": 1241,
      "\"[": 1242,
      "\"\"))": 1243,
      "-%": 1244,
      "2d": 1245,
      "3_": 1246,
      "3mm": 1247,
      "42": 1248,
      "42000": 1249,
      "525": 1250,
      "911": 1251,
      "Ar": 1252,
      "CE": 1253,
      "Can": 1254,
      "Di": 1255,
      "DCE": 1256,
      "Main": 1257,
      "Pr": 1258,
      "Pre": 1259,
      "Pos": 1260,
      "Run": 1261,
      "Sto": 1262,
      "_set": 1263,
      "_dir": 1264,
      "ben": 1265,
      "bug": 1266,
      "b_dir": 1267,
      "cle": 1268,
      "cau": 1269,
      "ding": 1270,
      "elen": 1271,
      "eve": 1272,
      "felen": 1273,
      "ise": 1274,
      "ncon": 1275,
      "pi": 1276,
      "pcounter": 1277,
      "smatchScore": 1278,
      "scan": 1279,
      "ted": 1280,
      "tra": 1281,
      "vent": 1282,
      "inclu": 1283,
      "ination": 1284,
      "strc": 1285,
      "onal": 1286,
      "only": 1287,
      "dead": 1288,
      "ition": 1289,
      "also": 1290,
      "alpha": 1291,
      "aration": 1292,
      "pen": 1293,
      "imination": 1294,
      "timed": 1295,
      "may": 1296,
      "endscop": 1297,
      "ific": 1298,
      "nowait": 1299,
      "blem": 1300,
      "using": 1301,
      "lap": 1302,
      "allocation": 1303,
      "unsign": 1304,
      "raise": 1305,
      "chmark": 1306,
      "adi": 1307,
      "],\"\"))": 1308,
      "printed": 1309,
      "entire": 1310,
      "(\"\\": 1311,
      "Retri": 1312,
      "max_num": 1313,
      "maxPos": 1314,
      "initialization": 1315,
      "--){": 1316,
      "similarity": 1317,
      "digo3_": 1318,
      "sub_dir": 1319,
      "set_nest_lock": 1320,
      "elimination": 1321,
      "rix": 1322,
      "/*--------------------------------": 1323,
      "2025": 1324,
      "whole": 1325,
      "problem": 1326,
      "Indigo3_": 1327,
      "_blocks": 1328,
      "section_count": 1329,
      "The": 1330,
      "This": 1331,
      "package": 1332,
      "533": 1333,
      "resid": 1334,
      ",\"%": 1335,
      "ulate": 1336,
      "declaration": 1337,
      "------------------------------------": 1338,
      "polybench_timer_start": 1339,
      "polybench_timer_print": 1340,
      "polybench_timer_stop": 1341,
      "Must": 1342,
      "Default": 1343,
      "safelen": 1344,
      "imper": 1345,
      "All": 1346,
      "diagonal": 1347,
      "incr_b": 1348,
      "numNodes2": 1349,
      "must": 1350,
      "computational": 1351,
      "add_Mult": 1352,
      "specific": 1353,
      "Array": 1354,
      "Prevent": 1355,
      "Stop": 1356,
      "benchmark": 1357,
      "clean": 1358,
      "cause": 1359,
      "ncons": 1360,
      "including": 1361,
      "strcmp": 1362,
      "unsigned": 1363,
      "Retrieve": 1364,
      "max_num_blocks": 1365,
      "/*--------------------------------------------------------------------": 1366,
      "\")": 1367,
      "119": 1368,
      "1197": 1369,
      "35": 1370,
      "599": 1371,
      "529": 1372,
      "549": 1373,
      "583": 1374,
      "581": 1375,
      "629": 1376,
      "625": 1377,
      "661": 1378,
      "627": 1379,
      "75": 1380,
      "865": 1381,
      "863": 1382,
      "889": 1383,
      "861": 1384,
      "867": 1385,
      "869": 1386,
      "859": 1387,
      "885": 1388,
      "915": 1389,
      "913": 1390,
      "919": 1391,
      "965": 1392,
      "963": 1393,
      "989": 1394,
      "921": 1395,
      "967": 1396,
      "969": 1397,
      "971": 1398,
      "939": 1399,
      "917": 1400,
      "937": 1401,
      "973": 1402,
      "AN": 1403,
      "Con": 1404,
      "Calc": 1405,
      "D_MAX": 1406,
      "Gu": 1407,
      "Mis": 1408,
      "Num": 1409,
      "ON": 1410,
      "RAN": 1411,
      "Uni": 1412,
      "_l": 1413,
      "_threads": 1414,
      "bound": 1415,
      "col": 1416,
      "cut": 1417,
      "ecut": 1418,
      "ft": 1419,
      "i1": 1420,
      "jb": 1421,
      "kb": 1422,
      "ld": 1423,
      "line": 1424,
      "l_path": 1425,
      "psum": 1426,
      "pfile": 1427,
      "tribu": 1428,
      "iner": 1429,
      "ster": 1430,
      "inter": 1431,
      "1615": 1432,
      "1613": 1433,
      "1619": 1434,
      "1665": 1435,
      "1649": 1436,
      "1621": 1437,
      "1667": 1438,
      "1669": 1439,
      "1671": 1440,
      "1623": 1441,
      "1639": 1442,
      "1617": 1443,
      "1673": 1444,
      "1675": 1445,
      "contribu": 1446,
      "ort": 1447,
      "left": 1448,
      "imit": 1449,
      "pred": 1450,
      "ome": 1451,
      "ict": 1452,
      "restr": 1453,
      "remo": 1454,
      "master": 1455,
      "seg": 1456,
      "1587": 1457,
      "1565": 1458,
      "1563": 1459,
      "1589": 1460,
      "1561": 1461,
      "1567": 1462,
      "1569": 1463,
      "1571": 1464,
      "1539": 1465,
      "1537": 1466,
      "1535": 1467,
      "vol": 1468,
      "gram": 1469,
      "1229": 1470,
      "1249": 1471,
      "1255": 1472,
      "1225": 1473,
      "1257": 1474,
      "1227": 1475,
      "1253": 1476,
      "1223": 1477,
      "1259": 1478,
      "1251": 1479,
      "1281": 1480,
      "1283": 1481,
      "listdir": 1482,
      "1329": 1483,
      "1327": 1484,
      "1311": 1485,
      "1987": 1486,
      "1929": 1487,
      "1955": 1488,
      "1925": 1489,
      "1957": 1490,
      "1961": 1491,
      "1927": 1492,
      "1953": 1493,
      "1983": 1494,
      "1959": 1495,
      "1981": 1496,
      "1951": 1497,
      "1985": 1498,
      "1231": 1499,
      "1233": 1500,
      "991": 1501,
      "993": 1502,
      "997": 1503,
      "thread_l": 1504,
      "2011": 1505,
      "651": 1506,
      "653": 1507,
      "655": 1508,
      "657": 1509,
      "659": 1510,
      "551": 1511,
      "553": 1512,
      "555": 1513,
      "557": 1514,
      "program": 1515,
      "based": 1516,
      "631": 1517,
      "633": 1518,
      "635": 1519,
      "2003": 1520,
      "2005": 1521,
      "2007": 1522,
      "2009": 1523,
      "573": 1524,
      "575": 1525,
      "577": 1526,
      "579": 1527,
      "891": 1528,
      "893": 1529,
      "895": 1530,
      "601": 1531,
      "603": 1532,
      "605": 1533,
      "607": 1534,
      "609": 1535,
      "1275": 1536,
      "1277": 1537,
      "1279": 1538,
      "1301": 1539,
      "1303": 1540,
      "1305": 1541,
      "1307": 1542,
      "1309": 1543,
      "1901": 1544,
      "1903": 1545,
      "1905": 1546,
      "1907": 1547,
      "1909": 1548,
      "180": 1549,
      "1899": 1550,
      "1883": 1551,
      "1881": 1552,
      "1873": 1553,
      "1875": 1554,
      "1877": 1555,
      "1879": 1556,
      "941": 1557,
      "943": 1558,
      "945": 1559,
      "947": 1560,
      "1641": 1561,
      "1643": 1562,
      "1645": 1563,
      "1647": 1564,
      "1591": 1565,
      "1593": 1566,
      "1595": 1567,
      "1597": 1568,
      "1201": 1569,
      "1203": 1570,
      "1205": 1571,
      "1207": 1572,
      "1331": 1573,
      "1333": 1574,
      "1335": 1575,
      "1337": 1576,
      "ulation": 1577,
      "races": 1578,
      "1541": 1579,
      "1543": 1580,
      "1545": 1581,
      "1931": 1582,
      "1933": 1583,
      "1935": 1584,
      "1977": 1585,
      "1979": 1586,
      "tokenizers": 1587,
      "consumed": 1588,
      "import": 1589,
      "calculation": 1590,
      "newSxx": 1591,
      "newSyy": 1592,
      "generate": 1593,
      "547": 1594,
      "full_path": 1595,
      "produced": 1596,
      "Diag": 1597,
      "lapse": 1598,
      "1199": 1599,
      "Calculate": 1600,
      "Number": 1601,
      "RAND_MAX": 1602,
      "Univ": 1603,
      "collapse": 1604,
      "contributed": 1605,
      "restrict": 1606,
      "thread_limit": 1607,
      "\"+": 1608,
      "/\"+": 1609,
      "149": 1610,
      "24": 1611,
      "527": 1612,
      "523": 1613,
      "<<": 1614,
      "Abor": 1615,
      "Bool": 1616,
      "Ch": 1617,
      "GA": 1618,
      "Get": 1619,
      "TT": 1620,
      "Task": 1621,
      "]@": 1622,
      "]\",": 1623,
      "_w": 1624,
      "_task": 1625,
      "_2d": 1626,
      "_imper": 1627,
      "_Bool": 1628,
      "ab": 1629,
      "aj": 1630,
      "cla": 1631,
      "ev": 1632,
      "gg": 1633,
      "ig": 1634,
      "ip": 1635,
      "j2": 1636,
      "k2": 1637,
      "ling": 1638,
      "mv": 1639,
      "o1": 1640,
      "oduc": 1641,
      "po": 1642,
      "py": 1643,
      "qq": 1644,
      "rd": 1645,
      "sz": 1646,
      "sert": 1647,
      "tou": 1648,
      "ting": 1649,
      "ues": 1650,
      "x1": 1651,
      "x10": 1652,
      "xpy": 1653,
      "{}": 1654,
      "aling": 1655,
      "++,": 1656,
      "idth": 1657,
      "-((-": 1658,
      "v_out": 1659,
      "?(((": 1660,
      "allocate": 1661,
      "val_w": 1662,
      "values": 1663,
      "execut": 1664,
      "Write_set": 1665,
      "missing": 1666,
      "variable": 1667,
      "().": 1668,
      "()==": 1669,
      "thrd": 1670,
      "(((((((((": 1671,
      "scheduling": 1672,
      "))?(((((((": 1673,
      "ments": 1674,
      "outLen": 1675,
      "992": 1676,
      "1048": 1677,
      "trigg": 1678,
      "num_sz": 1679,
      "coe": 1680,
      "duce": 1681,
      "produce": 1682,
      "]!=-": 1683,
      "tmp1": 1684,
      "matrix": 1685,
      "barrier_start": 1686,
      "barrier_init": 1687,
      "barrier_destroy": 1688,
      "barrier_stop": 1689,
      "_num_threads": 1690,
      "531": 1691,
      "matchMis": 1692,
      "...\\": 1693,
      "kernel_jacobi": 1694,
      "kernel_3mm": 1695,
      "kernel_adi": 1696,
      "saxpy": 1697,
      "consume": 1698,
      "signaling": 1699,
      "incr_a": 1700,
      "gen_task": 1701,
      "write_path": 1702,
      "nEle": 1703,
      "Produc": 1704,
      "Consum": 1705,
      "interval_w": 1706,
      "remove": 1707,
      "segments": 1708,
      "1492": 1709,
      "Aborting": 1710,
      "Child": 1711,
      "_2d_imper": 1712,
      "even": 1713,
      "touched": 1714,
      "x1024": 1715,
      "execution": 1716,
      "trigger": 1717,
      "matchMissmatchScore": 1718,
      "kernel_jacobi_2d_imper": 1719,
      "interval_width": 1720,
      ")][": 1721,
      "40": 1722,
      "70": 1723,
      "Ex": 1724,
      "Element": 1725,
      "Fib": 1726,
      "Function": 1727,
      "Gen": 1728,
      "NON": 1729,
      "PI": 1730,
      "Pur": 1731,
      "Rice": 1732,
      "Yiz": 1733,
      "[]": 1734,
      "]-=": 1735,
      "_c": 1736,
      "_p": 1737,
      "ax": 1738,
      "ack": 1739,
      "cil": 1740,
      "dv_": 1741,
      "fai": 1742,
      "ga": 1743,
      "gap": 1744,
      "j1": 1745,
      "k1": 1746,
      "kip": 1747,
      "my": 1748,
      "m_n": 1749,
      "m_p": 1750,
      "nDiag": 1751,
      "per": 1752,
      "pos": 1753,
      "q_c": 1754,
      "r1": 1755,
      "skip": 1756,
      "tx": 1757,
      "tol": 1758,
      "tter": 1759,
      "vel": 1760,
      "we": 1761,
      "wo": 1762,
      "work": 1763,
      "inal": 1764,
      "insert": 1765,
      "sten": 1766,
      "dela": 1767,
      "orig": 1768,
      "letter": 1769,
      "level": 1770,
      "refin": 1771,
      "ould": 1772,
      "seq_c": 1773,
      "lures": 1774,
      "nobug": 1775,
      "locate": 1776,
      "space": 1777,
      "value": 1778,
      "tempfile": 1779,
      "omp_set": 1780,
      "omp_set_nest_lock": 1781,
      "should": 1782,
      "num_steps": 1783,
      "omp_unset_nest_lock": 1784,
      "due": 1785,
      "256": 1786,
      "omp_get_num_threads": 1787,
      "append": 1788,
      "pairs": 1789,
      "copy": 1790,
      "Allocate": 1791,
      "nElement": 1792,
      "trainer": 1793,
      "similarityScore": 1794,
      "Indigo3_bug": 1795,
      "Indigo3_nobug": 1796,
      "\"):": 1797,
      "lines": 1798,
      "omega": 1799,
      "clause": 1800,
      "pose": 1801,
      "NONE": 1802,
      "Purpose": 1803,
      "Yizi": 1804,
      "cil_": 1805,
      "dv_sum": 1806,
      "failures": 1807,
      "gapScore": 1808,
      "mytempfile": 1809,
      "m_nvol": 1810,
      "m_pdv_sum": 1811,
      "position": 1812,
      "txt": 1813,
      "stencil_": 1814,
      "delay": 1815,
      "original": 1816,
      "refine": 1817,
      "seq_cst": 1818,
      "Allocates": 1819,
      "\"/\"+": 1820,
      "',": 1821,
      "'←": 1822,
      "'↑": 1823,
      "())": 1824,
      "):": 1825,
      ")++;": 1826,
      ")=%": 1827,
      ")][-": 1828,
      "*));": 1829,
      "**)": 1830,
      "+\"/\"+": 1831,
      "0f": 1832,
      "054": 1833,
      "400": 1834,
      "56": 1835,
      "62": 1836,
      "66": 1837,
      "923": 1838,
      ":%": 1839,
      ">-": 1840,
      "?-((-": 1841,
      "AG": 1842,
      "AL": 1843,
      "ATT": 1844,
      "BP": 1845,
      "BU": 1846,
      "Bpe": 1847,
      "CTT": 1848,
      "DE": 1849,
      "DI": 1850,
      "FT": 1851,
      "First": 1852,
      "HS": 1853,
      "Hel": 1854,
      "M_": 1855,
      "Mat": 1856,
      "NK": 1857,
      "PA": 1858,
      "Pres": 1859,
      "RHS": 1860,
      "Si": 1861,
      "Size": 1862,
      "Ste": 1863,
      "Sum": 1864,
      "TH": 1865,
      "To": 1866,
      "Tra": 1867,
      "Two": 1868,
      "UP": 1869,
      "UNK": 1870,
      "Wh": 1871,
      "Wu": 1872,
      "Wen": 1873,
      "[],": 1874,
      "]<=": 1875,
      "]==": 1876,
      "]};": 1877,
      "_no": 1878,
      "_from": 1879,
      "_com": 1880,
      "_input": 1881,
      "_token": 1882,
      "_code": 1883,
      "ac": 1884,
      "af": 1885,
      "ach": 1886,
      "ant": 1887,
      "ail": 1888,
      "access": 1889,
      "bal": 1890,
      "back": 1891,
      "cf": 1892,
      "calloc": 1893,
      "care": 1894,
      "dim": 1895,
      "dBug": 1896,
      "dri": 1897,
      "ege": 1898,
      "espace": 1899,
      "fn": 1900,
      "flush": 1901,
      "fail": 1902,
      "lld": 1903,
      "me": 1904,
      "mer": 1905,
      "mits": 1906,
      "ning": 1907,
      "none": 1908,
      "name": 1909,
      "o8": 1910,
      "ost": 1911,
      "oop": 1912,
      "open": 1913,
      "qu": 1914,
      "sin": 1915,
      "sion": 1916,
      "same": 1917,
      "srand": 1918,
      "some": 1919,
      "there": 1920,
      "war": 1921,
      "ware": 1922,
      "x1000": 1923,
      "zer": 1924,
      "{&": 1925,
      "{};": 1926,
      "stor": 1927,
      "sted": 1928,
      "stprivate": 1929,
      "decess": 1930,
      "deallocate": 1931,
      "itespace": 1932,
      ")):": 1933,
      "allow": 1934,
      "ardBug": 1935,
      "dataset": 1936,
      "imum": 1937,
      "ension": 1938,
      "age": 1939,
      "rela": 1940,
      "reas": 1941,
      "seed": 1942,
      "omp_nest_lock": 1943,
      "bet": 1944,
      "load": 1945,
      "lobal": 1946,
      "geable": 1947,
      "now": 1948,
      "tected": 1949,
      "?(((((": 1950,
      "?((((((": 1951,
      "laware": 1952,
      "lastprivate": 1953,
      "texinout": 1954,
      "phen": 1955,
      "===": 1956,
      "new_o8": 1957,
      "direct": 1958,
      "iteration": 1959,
      "Real": 1960,
      "maximum": 1961,
      "exit": 1962,
      "Read_set": 1963,
      "missmatchScore": 1964,
      "setup": 1965,
      "((((((((": 1966,
      "1001": 1967,
      "fines": 1968,
      "readlines": 1969,
      "taskloop": 1970,
      "source_code": 1971,
      "checking": 1972,
      "pre_": 1973,
      "predecess": 1974,
      "10x1024": 1975,
      "num_refine": 1976,
      "))))?(((": 1977,
      "2048": 1978,
      "20x1000": 1979,
      "fopen": 1980,
      "condition": 1981,
      "foo1": 1982,
      "497": 1983,
      "omp_init_nest_lock": 1984,
      "omp_destroy_nest_lock": 1985,
      "hao": 1986,
      "file_path": 1987,
      "kenizer": 1988,
      "Note": 1989,
      "...": 1990,
      "Delaware": 1991,
      "Defines": 1992,
      "LEFT": 1993,
      "consumer": 1994,
      "Because": 1995,
      "calcFirst": 1996,
      "mmm": 1997,
      "loops": 1998,
      "mutexinout": 1999,
      "within": 2000,
      "corpus_no": 2001,
      "erates": 2002,
      "producer": 2003,
      "track": 2004,
      "GuardBug": 2005,
      "ONAL": 2006,
      "bounds": 2007,
      "linear": 2008,
      "volnew_o8": 2009,
      "DiagElement": 2010,
      "Calculates": 2011,
      "GAATT": 2012,
      "GACTT": 2013,
      "about": 2014,
      "variables": 2015,
      "coef": 2016,
      "coeff": 2017,
      "Producer": 2018,
      "Produced": 2019,
      "Consumer": 2020,
      "Consumed": 2021,
      "Expected": 2022,
      "Generates": 2023,
      "pers": 2024,
      "copyin": 2025,
      "stencil_calc": 2026,
      "'←'": 2027,
      "'↑'": 2028,
      "0543": 2029,
      "4000": 2030,
      "AGONAL": 2031,
      "BPE": 2032,
      "BUG": 2033,
      "BpeTra": 2034,
      "DEBUG": 2035,
      "DIAGONAL": 2036,
      "Helpers": 2037,
      "M_PI": 2038,
      "Matrix": 2039,
      "Present": 2040,
      "Siege": 2041,
      "Stephen": 2042,
      "Tokenizer": 2043,
      "Whitespace": 2044,
      "Wenhao": 2045,
      "_from_input": 2046,
      "_comment": 2047,
      "acqu": 2048,
      "after": 2049,
      "ants": 2050,
      "backtrack": 2051,
      "careful": 2052,
      "dimension": 2053,
      "driver": 2054,
      "fails": 2055,
      "mergeable": 2056,
      "sink": 2057,
      "warning": 2058,
      "zeros": 2059,
      "storage": 2060,
      "relax": 2061,
      "reasing": 2062,
      "omp_nest_lock_t": 2063,
      "load_from_input": 2064,
      "directive": 2065,
      "predecessor": 2066,
      "10x1024x1024": 2067,
      "calcFirstDiagElement": 2068,
      "mutexinoutset": 2069,
      "corpus_no_comment": 2070,
      "GAATTCA": 2071,
      "BpeTrainer": 2072,
      "Siegel": 2073,
      "acquire": 2074,
      "\"%": 2075,
      "\"])": 2076,
      "\"<<": 2077,
      "')": 2078,
      ")(": 2079,
      ")-": 2080,
      "+\");": 2081,
      "/(": 2082,
      "/((": 2083,
      "01": 2084,
      "05": 2085,
      "26": 2086,
      "28": 2087,
      "30": 2088,
      "34": 2089,
      "96": 2090,
      "97": 2091,
      ";}": 2092,
      "=[": 2093,
      "=\"[": 2094,
      "An": 2095,
      "Aach": 2096,
      "Co": 2097,
      "Cla": 2098,
      "Cent": 2099,
      "Cop": 2100,
      "Det": 2101,
      "EP": 2102,
      "FI": 2103,
      "Global": 2104,
      "Iter": 2105,
      "Jo": 2106,
      "Loop": 2107,
      "RW": 2108,
      "Rand": 2109,
      "SK": 2110,
      "Sim": 2111,
      "Str": 2112,
      "Sig": 2113,
      "SEP": 2114,
      "Tim": 2115,
      "Tot": 2116,
      "Test": 2117,
      "Up": 2118,
      "We": 2119,
      "With": 2120,
      "[*": 2121,
      "]\\": 2122,
      "]\"))": 2123,
      "]\"])": 2124,
      "_vo": 2125,
      "_initial": 2126,
      "_dynamic": 2127,
      "_list": 2128,
      "_device": 2129,
      "acc": 2130,
      "aut": 2131,
      "ausing": 2132,
      "bl": 2133,
      "bs": 2134,
      "bt": 2135,
      "bus": 2136,
      "ci": 2137,
      "clo": 2138,
      "cout": 2139,
      "cassert": 2140,
      "carri": 2141,
      "cab": 2142,
      "causing": 2143,
      "ead": 2144,
      "fclo": 2145,
      "gr": 2146,
      "gone": 2147,
      "global": 2148,
      "host": 2149,
      "ient": 2150,
      "ike": 2151,
      "iost": 2152,
      "js": 2153,
      "kes": 2154,
      "ls": 2155,
      "like": 2156,
      "mn": 2157,
      "mist": 2158,
      "mset": 2159,
      "nce": 2160,
      "nMatrix": 2161,
      "ove": 2162,
      "obt": 2163,
      "oci": 2164,
      "pu": 2165,
      "ping": 2166,
      "ppen": 2167,
      "qr": 2168,
      "que": 2169,
      "ral": 2170,
      "rong": 2171,
      "sb": 2172,
      "sf": 2173,
      "sm": 2174,
      "sw": 2175,
      "sor": 2176,
      "ser": 2177,
      "sid": 2178,
      "sug": 2179,
      "sync": 2180,
      "scor": 2181,
      "score": 2182,
      "smatch": 2183,
      "sqr": 2184,
      "tw": 2185,
      "tion": 2186,
      "two": 2187,
      "ual": 2188,
      "ure": 2189,
      "ved": 2190,
      "ving": 2191,
      "wtime": 2192,
      "wrong": 2193,
      "ze": 2194,
      "inst": 2195,
      "stable": 2196,
      "stack": 2197,
      "stants": 2198,
      "into": 2199,
      "atic": 2200,
      "ations": 2201,
      "onacc": 2202,
      "constants": 2203,
      "ized": 2204,
      "dele": 2205,
      "deri": 2206,
      "depen": 2207,
      "dels": 2208,
      "dence": 2209,
      "ores": 2210,
      "orization": 2211,
      "ermine": 2212,
      "alread": 2213,
      "arace": 2214,
      "00L": 2215,
      "dates": 2216,
      "datarace": 2217,
      "omatic": 2218,
      "ich": 2219,
      "icient": 2220,
      "ensu": 2221,
      "ream": 2222,
      "reco": 2223,
      "reque": 2224,
      "makes": 2225,
      "oup": 2226,
      "because": 2227,
      "endl": 2228,
      "endif": 2229,
      "gested": 2230,
      "lumn": 2231,
      "lution": 2232,
      "ify": 2233,
      "ifdef": 2234,
      "1500": 2235,
      "location": 2236,
      "user": 2237,
      "tection": 2238,
      "00000000": 2239,
      "labs": 2240,
      "unable": 2241,
      "][%": 2242,
      "indexing": 2243,
      "verify": 2244,
      "CLS": 2245,
      "get_vo": 2246,
      "valid": 2247,
      "new_pro": 2248,
      "returns": 2249,
      "answ": 2250,
      "mined": 2251,
      "isfile": 2252,
      "is_initial": 2253,
      "which": 2254,
      "])/": 2255,
      "\",\"": 2256,
      "Reference": 2257,
      "Resid": 2258,
      "max_threads": 2259,
      "ssic": 2260,
      "ial_token": 2261,
      "initialTim": 2262,
      "ctorization": 2263,
      "simulate": 2264,
      "structure": 2265,
      "missmatch": 2266,
      "()%": 2267,
      "()\\": 2268,
      "decreasing": 2269,
      "MASK": 2270,
      "addition": 2271,
      "omp_is_initial": 2272,
      "]=(": 2273,
      "stdint": 2274,
      "ings": 2275,
      "associ": 2276,
      "taskgr": 2277,
      "vectorization": 2278,
      "overlap": 2279,
      "tern": 2280,
      "predeter": 2281,
      "preser": 2282,
      "ltip": 2283,
      "but": 2284,
      "ones": 2285,
      "2015": 2286,
      "2040": 2287,
      "_tol": 2288,
      "ake": 2289,
      "Lines": 2290,
      "results": 2291,
      "proper": 2292,
      "protected": 2293,
      "protection": 2294,
      "2560": 2295,
      "Insert": 2296,
      "happen": 2297,
      "error_tol": 2298,
      "unk_token": 2299,
      "oper": 2300,
      "otze": 2301,
      "**));": 2302,
      "***)": 2303,
      "****": 2304,
      "***));": 2305,
      "****)": 2306,
      "]*(": 2307,
      "]*=": 2308,
      "pattern": 2309,
      "832040": 2310,
      "omp_get_wtime": 2311,
      "omp_get_max_threads": 2312,
      "_nested": 2313,
      "517": 2314,
      "51200L": 2315,
      "rectly": 2316,
      "Detected": 2317,
      "gnized": 2318,
      "save": 2319,
      "increasing": 2320,
      "Alpha": 2321,
      "compared": 2322,
      "calcElement": 2323,
      "strings": 2324,
      "200000000": 2325,
      "multip": 2326,
      "Stores": 2327,
      "move": 2328,
      "models": 2329,
      "solution": 2330,
      "add_sor": 2331,
      "Variables": 2332,
      "special_token": 2333,
      "Directly": 2334,
      "Proper": 2335,
      "Protze": 2336,
      "ted_list": 2337,
      "train": 2338,
      "alphabet": 2339,
      "Constants": 2340,
      "Missing": 2341,
      "ecuted": 2342,
      "inters": 2343,
      "removing": 2344,
      "<<\"": 2345,
      "Gets": 2346,
      "above": 2347,
      "class": 2348,
      "pointers": 2349,
      "matrixes": 2350,
      "4096": 2351,
      "Executed": 2352,
      "Fibonacc": 2353,
      "[]:": 2354,
      "omp_set_num_threads": 2355,
      "omp_set_dynamic": 2356,
      "omp_set_nested": 2357,
      "copyprivate": 2358,
      "trainers": 2359,
      "stencil_in": 2360,
      "())/((": 2361,
      "PAD": 2362,
      "PATH": 2363,
      "achim": 2364,
      "mesh": 2365,
      "memset": 2366,
      "namespace": 2367,
      "oops": 2368,
      "allows": 2369,
      "pre_tokenizer": 2370,
      "pre_tokenizers": 2371,
      "coefficient": 2372,
      "dimensional": 2373,
      "=[\"[": 2374,
      "Any": 2375,
      "Aachen": 2376,
      "Column": 2377,
      "Classic": 2378,
      "Central": 2379,
      "Copy": 2380,
      "Determine": 2381,
      "FILE": 2382,
      "Iterations": 2383,
      "Joachim": 2384,
      "RWTH": 2385,
      "Random": 2386,
      "Similarity": 2387,
      "Strings": 2388,
      "Sigma": 2389,
      "Total": 2390,
      "Updates": 2391,
      "Without": 2392,
      "automatic": 2393,
      "blic": 2394,
      "busy": 2395,
      "carried": 2396,
      "fclose": 2397,
      "iostream": 2398,
      "json": 2399,
      "mistake": 2400,
      "obtain": 2401,
      "public": 2402,
      "suggested": 2403,
      "scores": 2404,
      "sqrt": 2405,
      "twice": 2406,
      "instead": 2407,
      "delete": 2408,
      "derived": 2409,
      "dependence": 2410,
      "already": 2411,
      "ensure": 2412,
      "recognized": 2413,
      "requested": 2414,
      "0000000001": 2415,
      "get_vocab": 2416,
      "new_proc": 2417,
      "answer": 2418,
      "References": 2419,
      "Residual": 2420,
      "initialTime": 2421,
      "omp_is_initial_device": 2422,
      "associate": 2423,
      "taskgroup": 2424,
      "overlapping": 2425,
      "predetermined": 2426,
      "preserve": 2427,
      "properly": 2428,
      "Inserts": 2429,
      "happens": 2430,
      "Alphabet": 2431,
      "multiple": 2432,
      "add_sorted_list": 2433,
      "special_tokens": 2434,
      "Fibonacci": 2435,
      "coefficients": 2436,
      "Columns": 2437
    },
    "merges": [
      "i n",
      "s t",
      "in t",
      "1 6",
      "a t",
      "o n",
      "( (",
      ") ;",
      "c on",
      "con st",
      "i z",
      "iz e",
      "w l",
      "s ize",
      "d e",
      "i t",
      "o r",
      ") )",
      "e r",
      "a l",
      "a r",
      "0 0",
      "d at",
      "l e",
      "p e",
      "i st",
      "f or",
      "t y",
      "ty pe",
      "+ +",
      "dat a",
      "i m",
      "p r",
      "o m",
      "wl 1",
      "_ type",
      "data _type",
      "t im",
      "tim e",
      "i c",
      "e n",
      "++ )",
      "a g",
      "r e",
      "st at",
      "m a",
      "d ist",
      "wl 2",
      "n l",
      "o u",
      "s e",
      "c 2",
      "it er",
      "n j",
      "] ;",
      "om p",
      "c 4",
      "/ /",
      "b e",
      "o f",
      "l o",
      "en d",
      "- (",
      "n k",
      "i d",
      "( &",
      "g e",
      "l u",
      "c lu",
      "clu de",
      "i f",
      "1 5",
      "r c",
      "n o",
      "c 3",
      "e w",
      "e d",
      "s rc",
      "- ((",
      "-(( -(",
      ") );",
      "b le",
      "lo c",
      "d ou",
      "dou ble",
      "pr ag",
      "prag ma",
      "c 1",
      "n m",
      "in clude",
      "wl1 size",
      "u s",
      "se c",
      "stat us",
      "t e",
      "g o",
      "v _",
      "t v_",
      "no de",
      "00 00",
      "node s",
      "? ((",
      "wl2 size",
      "n ew",
      "ar t",
      "l a",
      "st art",
      "al loc",
      "in it",
      "u n",
      "size of",
      "r a",
      "m alloc",
      "be l",
      "la bel",
      "p ar",
      "stat ic",
      "] [",
      "f re",
      "fre e",
      "< =",
      "a in",
      "c h",
      "ag ain",
      "go again",
      "n i",
      "in de",
      "inde x",
      ")) )",
      "n index",
      "id x",
      "v er",
      "r it",
      "d st",
      "u r",
      "s p",
      "v o",
      "vo id",
      "nl ist",
      "te x",
      "ver tex",
      "p h",
      "a d",
      "pr i",
      "= =",
      "g ra",
      "? -((-(",
      "C L",
      "E CL",
      "gra ph",
      "ECL graph",
      "ge t",
      "ed ge",
      "be g",
      "at om",
      "atom ic",
      "n t",
      "e i",
      "(( (",
      "v al",
      "new _",
      "it y",
      "re t",
      "or ity",
      "pri ority",
      "ur n",
      "ret urn",
      "L L",
      "N U",
      "NU LL",
      "a y",
      "al le",
      "par alle",
      "paralle l",
      "_ vertex",
      "d ay",
      "u sec",
      "time of",
      "tv_ sec",
      "tv_ usec",
      "get timeof",
      "gettimeof day",
      "] ,",
      "a n",
      "g h",
      "1 0000",
      "pr int",
      "r un",
      "run time",
      "ei gh",
      "10000 00",
      "m in",
      "d i",
      "include d",
      "en t",
      "i s",
      "++ ;",
      "print f",
      "! =",
      "iter at",
      "w h",
      "( \"",
      "_ n",
      "] )",
      "\" ,",
      "r u",
      "R e",
      "ma x",
      "i le",
      "c rit",
      "ic al",
      "crit ical",
      "s s",
      "u p",
      "wh ile",
      "h er",
      "ou nt",
      "_ new",
      "i al",
      "par ent",
      "init ial",
      "de f",
      "new_ dist",
      "_vertex _",
      "i on",
      "c e",
      "edge s",
      "c ount",
      "u g",
      "her e",
      "initial ize",
      "B ug",
      "c t",
      "( *",
      "- -",
      "s im",
      "e x",
      "m p",
      "sim d",
      ")) ))",
      "Re ad",
      "min v",
      "ew eigh",
      "eweigh t",
      "d o",
      "atomic Read",
      "e p",
      "re p",
      "1 2",
      "rit e",
      "te mp",
      "* )",
      "W rite",
      "wl size",
      "atomic Write",
      "critical _",
      "ru ct",
      "ra y",
      "i l",
      "type def",
      "di go",
      "st ruct",
      "ar ray",
      "in digo",
      "time val",
      "loc k",
      "indigo _",
      "max val",
      "ion s",
      "up dat",
      "& &",
      "an d",
      "] );",
      "a ce",
      "iterat ions",
      "R ace",
      "Race Bug",
      "m is",
      "lo st",
      "c c",
      "b f",
      "ss sp",
      "bf s",
      "ex clude",
      "a m",
      "o l",
      "s u",
      "v ar",
      "ar ep",
      "ed x",
      "( -",
      "( )",
      "? -(",
      "y n",
      "de c",
      "C P",
      "CP U",
      "se t",
      "? (-",
      "M A",
      "_ edge",
      "b rep",
      "?-( -",
      "MA X",
      "i de",
      "dec ide",
      "decide d",
      "c nt",
      "exclude d",
      "t h",
      "le n",
      "a s",
      "new_ label",
      "m or",
      "ma in",
      "(( ((",
      "un decided",
      "1 00",
      "status _n",
      "ch an",
      "_vertex_ omp",
      "chan ge",
      "t il",
      "un til",
      "iterat e",
      "mor e",
      "change s",
      ") ]",
      "b or",
      "status _new",
      "ad d",
      "n eigh",
      "neigh bor",
      "> =",
      "A P",
      "S W",
      "SW AP",
      "o ol",
      "ch _",
      "ch ed",
      "updat ed",
      "b ool",
      "s ched",
      "sched u",
      "st di",
      "stdi o",
      "schedu le",
      "d yn",
      "am ic",
      "dyn amic",
      "ar g",
      "e t",
      "e l",
      "f al",
      "count er",
      "fal se",
      "n d",
      "omp _",
      "] =",
      ")) ?((",
      "_vertex_ data",
      "-- --",
      "- >",
      "_ add",
      "f et",
      "and _add",
      "ch_ and_add",
      "fet ch_and_add",
      "r i",
      "f in",
      "t ru",
      "tru e",
      "_edge _",
      "array s",
      "() {",
      "fin d",
      "| |",
      "re ad",
      "el se",
      "dist _new",
      "r om",
      "dist _n",
      "++) {",
      "c ur",
      "up d",
      "counter var",
      "cur r",
      "12 8",
      "critical_ max",
      "_ lock",
      "l ist",
      "st d",
      "or k",
      "))?(( (",
      "ork list",
      "th e",
      "in e",
      "in g",
      "( );",
      "1 3",
      "as k",
      "a ss",
      "t ask",
      "su m",
      "5 00",
      "] ])",
      "m st",
      "w ei",
      "w orklist",
      "c 0",
      "c k",
      "at e",
      "critical_ min",
      "I N",
      "al l",
      "* /",
      "/ *",
      "1 9",
      "u m",
      "updat e",
      "v ate",
      "pri vate",
      "m rep",
      "Re p",
      "find Rep",
      "_ MAX",
      "_edge_ omp",
      "T _MAX",
      "IN T_MAX",
      "v e",
      "t o",
      "def ine",
      "arg c",
      "arg v",
      "8 7",
      "i b",
      "label _n",
      "label _new",
      "f rom",
      "ou nd",
      "+ =",
      "f ound",
      "n ex",
      "il l",
      "---- ----",
      "mst _",
      "nex t",
      "(( (((",
      "c 8",
      "set _lock",
      "m ent",
      "p ass",
      "t id",
      "b lock",
      "s ou",
      "rc e",
      "sou rce",
      "= %",
      "le ment",
      "st ep",
      "dist an",
      "step s",
      "distan ce",
      "s h",
      "o ver",
      "su ch",
      "n um",
      "t ar",
      "indigo_ cc",
      "indigo_ sssp",
      "indigo_ bfs",
      "CPU cc",
      "CPU sssp",
      "CPU bfs",
      "tar get",
      "e lement",
      ")) ));",
      "ma p",
      "ou t",
      "c 5",
      "te am",
      "12 3",
      "team s",
      "e ck",
      "l ib",
      "ch eck",
      "yn c",
      "std lib",
      "M i",
      "S ync",
      "t er",
      "x Sync",
      "pr e",
      "ch ar",
      "Mi xSync",
      "MixSync Bug",
      "l t",
      "W L",
      "y b",
      "8 87",
      "9 9",
      "i r",
      "t steps",
      "( %",
      "C A",
      "element s",
      "te st",
      "end 1",
      "critical_ CA",
      "cc _vertex_data",
      "sssp _vertex_data",
      "pre v",
      "critical_CA S",
      ") \\",
      "h as",
      "de ter",
      "min e",
      "% %",
      "1 f",
      "7 123",
      "M P",
      "O MP",
      "pe nd",
      "indigo_ mis",
      "13 887",
      "(% .",
      "has h",
      "deter mine",
      "%% )\\",
      "7123 13887",
      "OMP mis",
      "i ve",
      "_edge_ data",
      "b u",
      "de pend",
      "p ol",
      "ic e",
      "ri bu",
      "yb en",
      "pol yben",
      "c 15",
      "ar ed",
      "[ ])",
      "er t",
      "sh ared",
      "1 0",
      "v ice",
      "de vice",
      "dist ribu",
      "distribu te",
      "\" );",
      "] ]",
      "a it",
      "t of",
      "w ait",
      "end 2",
      "start 1",
      "start 2",
      "indigo_bfs _vertex_omp",
      "CPUbfs _vertex",
      "tof rom",
      ": :",
      "ass ert",
      "t ri",
      "on e",
      "th read",
      "indigo_cc _vertex_omp",
      "indigo_sssp _vertex_omp",
      "CPUcc _vertex",
      "CPUsssp _vertex",
      "ir st",
      ")) )))",
      ")))) );",
      "num _",
      "] ))",
      "f irst",
      ")))) ?((",
      "bfs _vertex_data",
      "ar ri",
      "2 0",
      "L ive",
      "_ count",
      "f ill",
      "wh o",
      "lock Bug",
      "]= %",
      "arri er",
      "Live lockBug",
      "j o",
      "jo in",
      "c 9",
      "3 2",
      "f o",
      "con d",
      "omp_ un",
      "2 9",
      "_ t",
      "a k",
      "t r",
      "st r",
      ") [",
      "C ount",
      "] ))))",
      "b re",
      "g size",
      "g _count",
      "h i",
      "n on",
      "t c",
      "w n",
      "se cond",
      "sec t",
      "beg 1",
      "beg 2",
      "gh er",
      "100 0",
      "neighbor s",
      "mst_ first",
      "mst_ second",
      "indigo_mis _vertex_omp",
      "OMPmis _vertex",
      "tri Count",
      "who se",
      "fo o",
      "tr y",
      "bre ak",
      "hi gher",
      "triCount ing",
      "6 5",
      "ct ion",
      "omp_ set_lock",
      "omp_un set_lock",
      "A d",
      "on g",
      "critical Ad",
      "criticalAd d",
      "l ong",
      ") {",
      "b arrier",
      "_vertex_ pass",
      "mis _vertex_pass",
      "L ine",
      "u t",
      "(\" %",
      "task wait",
      "B la",
      "a se",
      "c 7",
      "c o",
      "re su",
      "// +",
      "nk Line",
      "c1 0",
      "-------- --------",
      "polyben ch_",
      "Bla nkLine",
      "resu lt",
      "5 0",
      "e s",
      "p a",
      "d u",
      "s ing",
      "x a",
      "at ion",
      "ar e",
      "4 8",
      "a u",
      "-- ;",
      "))?(( (((",
      "4 9",
      "] +",
      "e a",
      "de r",
      "su block",
      "add lock",
      "5 5",
      "] ],",
      "pr o",
      "[ -",
      "] !=",
      "sing le",
      "b ase",
      "c or",
      "l f",
      "l ck",
      "o y",
      "r or",
      "t mp",
      "st ill",
      "de str",
      "destr oy",
      "6 4",
      "6 3",
      "e it",
      "l 0",
      "l 1",
      "l y",
      "eit her",
      "2 5",
      "2 00",
      "I n",
      "_ block",
      "(((( (((",
      "5 7",
      "8 9",
      "tim er",
      "lo w",
      "10000 0",
      "(((( ((",
      "omp_ init",
      "omp_ destroy",
      "sect ion",
      "T h",
      "m at",
      ")) );",
      "?(( ((",
      "thread s",
      "m ar",
      "p ut",
      "][ -",
      "sum 1",
      "low er",
      "omp_init _lock",
      "omp_destroy _lock",
      "mar k",
      "h a",
      "u e",
      "in out",
      "ce ss",
      "6 0",
      "M IN",
      "f printf",
      "o i",
      "u 1",
      "at oi",
      "it s",
      "er ror",
      "12 7",
      "barrier _",
      ", (",
      "6 1",
      "_ size",
      "c cess",
      "u nk",
      "st der",
      "th is",
      "13 0",
      "19 0",
      "ea ch",
      "_block _size",
      "stder r",
      "2 1",
      "2 7",
      "_ data",
      "_ array",
      "k er",
      "n el",
      "o p",
      "o t",
      "o wn",
      "w as",
      ")) ,(",
      "++ ]",
      "se lf",
      "be st",
      "no wn",
      "alloc _data",
      "_n um",
      "]) (",
      "initial ly",
      "(* )[",
      "indigo_ mst",
      "indigo_ tc",
      "cc _edge_data",
      "sssp _edge_data",
      "CPU mst",
      "CPU tc",
      "std bool",
      "ck ag",
      "indigo_cc _edge_omp",
      "indigo_sssp _edge_omp",
      "CPUcc _edge",
      "CPUsssp _edge",
      "polyben ch",
      "polybench_ alloc_data",
      "pa ckag",
      "au lt",
      "ha ve",
      "unk nown",
      "ker nel",
      "A ccess",
      "I ss",
      "M e",
      "i ble",
      "v is",
      "ct ed",
      "mor y",
      "num_ threads",
      "Iss ue",
      "Me mory",
      "vis ible",
      "( +",
      "( -(",
      ") ++]",
      "? (-(",
      "[ (*",
      "f l",
      "n or",
      "n either",
      "o s",
      "re main",
      "re du",
      "lock _t",
      "?-( -(",
      "th at",
      "omp_ lock_t",
      "sum 0",
      "indigo_bfs _edge_omp",
      "CPUbfs _edge",
      "indigo_mis _edge_omp",
      "OMPmis _edge",
      "ot her",
      "(+ :",
      "fl ag",
      "remain ing",
      "redu ction",
      "pe cted",
      "* *",
      "1 8",
      "1 87",
      "5 3",
      "6 7",
      "6 9",
      "9 4",
      "c om",
      "w on",
      "16 4",
      "re s",
      "15 9",
      "12 0",
      "bfs _edge_data",
      "13 3",
      "xa 1",
      "xa 2",
      ", \"",
      "b y",
      "f ile",
      "x x",
      "y y",
      "ex pected",
      "omp_ get",
      "7 1",
      "I Z",
      "M S",
      "[ %",
      "a p",
      "c 6",
      "d one",
      "f f",
      "f ib",
      "l 2",
      "m on",
      "s i",
      "u 2",
      "u l",
      "in WL",
      "lu sh",
      ")))) ))",
      ")))) )))",
      "dec l",
      "num_ teams",
      "sect ions",
      "---------------- ----------------",
      "polybench_ timer",
      "packag es",
      "com mon",
      "IZ E",
      "MS IZE",
      "polybench_timer _",
      "- =",
      "] *",
      "] +=",
      "f lo",
      "p at",
      "ra ce",
      "def ault",
      "il d",
      "pa ir",
      "Th read",
      "flo at",
      "1 1",
      "1 st",
      "2 3",
      "2 nd",
      "8 3",
      "M u",
      "U n",
      "] )))",
      "b p",
      "f 1",
      "k en",
      "st dou",
      "un ction",
      "critical Read",
      "update Un",
      "49 8",
      "cor e",
      "omp_get _",
      "ff lush",
      "pat h",
      "stdou t",
      "updateUn decided",
      "3 9",
      "5 9",
      "8 1",
      "a ble",
      "al c",
      "// #",
      "15 4",
      "19 3",
      "19 7",
      "co p",
      "1 4",
      "5 21",
      "N o",
      "S et",
      "S core",
      "] ++;",
      "e st",
      "in put",
      "int 64",
      "ize r",
      "index Set",
      "to ken",
      "block s",
      "out put",
      "thread _num",
      "co de",
      "mat ch",
      "omp_get_ thread_num",
      "int64 _t",
      ") /",
      "4 99",
      "L en",
      "f unction",
      "u se",
      "ch ild",
      "_n est",
      ")))) ?",
      "128 5",
      "99 9",
      "( !",
      ". .",
      "5 1",
      "5 12",
      "F rom",
      "W orklist",
      "b er",
      "c all",
      "c ap",
      "h ea",
      "i 2",
      "l ive",
      "s cop",
      "it ial",
      "re ct",
      "re set",
      "init _array",
      "vertex es",
      "print _array",
      "di r",
      "am e",
      "update From",
      "In clude",
      "In itial",
      "indigo_mst _vertex_omp",
      "indigo_mst _edge_omp",
      "indigo_tc _vertex_omp",
      "indigo_tc _edge_omp",
      "CPUtc _vertex",
      "CPUtc _edge",
      "kernel _",
      ",\" \\",
      "decl are",
      "token izer",
      "_nest _lock",
      "hea der",
      "updateFrom Worklist",
      "D e",
      "L E",
      "_ path",
      "d x",
      "d y",
      "g n",
      "i able",
      "k e",
      "s a",
      "v s",
      "in c",
      "con sum",
      "ist d",
      "im p",
      "un istd",
      "ra nd",
      "20 13",
      "du c",
      "mat h",
      "Initial ize",
      "1 7",
      "2 lf",
      "3 7",
      "7 3",
      "8 5",
      "A l",
      "B e",
      "D at",
      "c omp",
      "c alc",
      "m m",
      "m yb",
      "n pro",
      "r _",
      "} ;",
      "st op",
      "); ;",
      "de s",
      "de re",
      "it h",
      "or dere",
      "lo op",
      "new S",
      "di ag",
      "ol d",
      "num No",
      "thread private",
      "str ing",
      "barrier_ wait",
      "flag _t",
      "si gn",
      "Mu lt",
      "ke ep",
      "inc r_",
      "Dat a",
      "myb arrier",
      "npro d",
      "ordere d",
      "numNo des",
      "2 0000",
      "] .",
      "g en",
      "m u",
      "t p",
      "u old",
      "w rite",
      "w ith",
      "x _block_size",
      "y _block_size",
      "in Len",
      "]= ((",
      "sum 2",
      "ut ation",
      "cor rect",
      "200 0",
      "Thread s",
      "comp utation",
      "' ;",
      ") *",
      "D one",
      "E r",
      "E nd",
      "M Y",
      "S t",
      "a co",
      "b i",
      "e ss",
      "f 0",
      "f er",
      "h read",
      "i re",
      "j aco",
      "n steps",
      "n ess",
      "p us",
      "s j",
      "w ill",
      "const ruct",
      "en ce",
      "re al",
      "re ction",
      "no t",
      "loc al",
      "ph ase",
      "nt hread",
      "di rection",
      "_n ame",
      "critical Write",
      "arg um",
      "num Threads",
      "))))?(( ((",
      "au x",
      "cor pus",
      "file _name",
      "match Score",
      "LE N",
      "correct ness",
      "Er ror",
      "MY LEN",
      "fer ence",
      "jaco bi",
      "argum ent",
      "\" ))",
      ") .",
      ". \\",
      "5 4",
      "V ar",
      "a i",
      "c an",
      "f ault",
      "f ul",
      "g th",
      "m o",
      "n E",
      "s o",
      "s pe",
      "z _block_size",
      "iz ation",
      "er ate",
      "ar ity",
      "re ference",
      "][ (-",
      "ph a",
      "il arity",
      "var s",
      "len gth",
      "add _",
      "num ber",
      "99 5",
      "num_ vars",
      "first private",
      "pro duc",
      "use d",
      "St art",
      "real 8",
      "Var iable",
      "spe c",
      "\" [",
      "\" \"))",
      "- %",
      "2 d",
      "3 _",
      "3 mm",
      "4 2",
      "4 2000",
      "5 25",
      "9 11",
      "A r",
      "C E",
      "C an",
      "D i",
      "D CE",
      "M ain",
      "P r",
      "P re",
      "P os",
      "R un",
      "S to",
      "_ set",
      "_ dir",
      "b en",
      "b ug",
      "b _dir",
      "c le",
      "c au",
      "d ing",
      "e len",
      "e ve",
      "f elen",
      "i se",
      "n con",
      "p i",
      "p counter",
      "s matchScore",
      "s can",
      "t ed",
      "t ra",
      "v ent",
      "in clu",
      "in ation",
      "st rc",
      "on al",
      "on ly",
      "de ad",
      "it ion",
      "al so",
      "al pha",
      "ar ation",
      "pe n",
      "im ination",
      "time d",
      "ma y",
      "end scop",
      "if ic",
      "no wait",
      "ble m",
      "us ing",
      "la p",
      "alloc ation",
      "un sign",
      "ra ise",
      "ch mark",
      "ad i",
      "], \"\"))",
      "print ed",
      "ent ire",
      "(\" \\",
      "Re tri",
      "max _num",
      "max Pos",
      "initial ization",
      "-- ){",
      "sim ilarity",
      "digo 3_",
      "su b_dir",
      "set _nest_lock",
      "el imination",
      "ri x",
      "/* --------------------------------",
      "20 25",
      "who le",
      "pro blem",
      "In digo3_",
      "_block s",
      "section _count",
      "Th e",
      "Th is",
      "packag e",
      "53 3",
      "res id",
      ",\" %",
      "ul ate",
      "decl aration",
      "-------------------------------- ----",
      "polybench_timer_ start",
      "polybench_timer_ print",
      "polybench_timer_ stop",
      "Mu st",
      "De fault",
      "sa felen",
      "imp er",
      "Al l",
      "diag onal",
      "incr_ b",
      "numNodes 2",
      "mu st",
      "computation al",
      "add_ Mult",
      "spec ific",
      "Ar ray",
      "Pre vent",
      "Sto p",
      "ben chmark",
      "cle an",
      "cau se",
      "ncon s",
      "inclu ding",
      "strc mp",
      "unsign ed",
      "Retri eve",
      "max_num _blocks",
      "/*-------------------------------- ------------------------------------",
      "\" )",
      "1 19",
      "1 197",
      "3 5",
      "5 99",
      "5 29",
      "5 49",
      "5 83",
      "5 81",
      "6 29",
      "6 25",
      "6 61",
      "6 27",
      "7 5",
      "8 65",
      "8 63",
      "8 89",
      "8 61",
      "8 67",
      "8 69",
      "8 59",
      "8 85",
      "9 15",
      "9 13",
      "9 19",
      "9 65",
      "9 63",
      "9 89",
      "9 21",
      "9 67",
      "9 69",
      "9 71",
      "9 39",
      "9 17",
      "9 37",
      "9 73",
      "A N",
      "C on",
      "C alc",
      "D _MAX",
      "G u",
      "M is",
      "N um",
      "O N",
      "R AN",
      "U ni",
      "_ l",
      "_ threads",
      "b ound",
      "c ol",
      "c ut",
      "e cut",
      "f t",
      "i 1",
      "j b",
      "k b",
      "l d",
      "l ine",
      "l _path",
      "p sum",
      "p file",
      "t ribu",
      "in er",
      "st er",
      "int er",
      "16 15",
      "16 13",
      "16 19",
      "16 65",
      "16 49",
      "16 21",
      "16 67",
      "16 69",
      "16 71",
      "16 23",
      "16 39",
      "16 17",
      "16 73",
      "16 75",
      "con tribu",
      "or t",
      "le ft",
      "im it",
      "pr ed",
      "om e",
      "ic t",
      "re str",
      "re mo",
      "ma ster",
      "se g",
      "15 87",
      "15 65",
      "15 63",
      "15 89",
      "15 61",
      "15 67",
      "15 69",
      "15 71",
      "15 39",
      "15 37",
      "15 35",
      "vo l",
      "gra m",
      "12 29",
      "12 49",
      "12 55",
      "12 25",
      "12 57",
      "12 27",
      "12 53",
      "12 23",
      "12 59",
      "12 51",
      "128 1",
      "128 3",
      "list dir",
      "13 29",
      "13 27",
      "13 11",
      "19 87",
      "19 29",
      "19 55",
      "19 25",
      "19 57",
      "19 61",
      "19 27",
      "19 53",
      "19 83",
      "19 59",
      "19 81",
      "19 51",
      "19 85",
      "123 1",
      "123 3",
      "99 1",
      "99 3",
      "99 7",
      "thread _l",
      "20 11",
      "65 1",
      "65 3",
      "65 5",
      "65 7",
      "65 9",
      "55 1",
      "55 3",
      "55 5",
      "55 7",
      "pro gram",
      "base d",
      "63 1",
      "63 3",
      "63 5",
      "200 3",
      "200 5",
      "200 7",
      "200 9",
      "57 3",
      "57 5",
      "57 7",
      "57 9",
      "89 1",
      "89 3",
      "89 5",
      "60 1",
      "60 3",
      "60 5",
      "60 7",
      "60 9",
      "127 5",
      "127 7",
      "127 9",
      "130 1",
      "130 3",
      "130 5",
      "130 7",
      "130 9",
      "190 1",
      "190 3",
      "190 5",
      "190 7",
      "190 9",
      "18 0",
      "18 99",
      "18 83",
      "18 81",
      "187 3",
      "187 5",
      "187 7",
      "187 9",
      "94 1",
      "94 3",
      "94 5",
      "94 7",
      "164 1",
      "164 3",
      "164 5",
      "164 7",
      "159 1",
      "159 3",
      "159 5",
      "159 7",
      "120 1",
      "120 3",
      "120 5",
      "120 7",
      "133 1",
      "133 3",
      "133 5",
      "133 7",
      "ul ation",
      "race s",
      "154 1",
      "154 3",
      "154 5",
      "193 1",
      "193 3",
      "193 5",
      "197 7",
      "197 9",
      "tokenizer s",
      "consum ed",
      "imp ort",
      "calc ulation",
      "newS xx",
      "newS yy",
      "gen erate",
      "54 7",
      "ful l_path",
      "produc ed",
      "Di ag",
      "lap se",
      "119 9",
      "Calc ulate",
      "Num ber",
      "RAN D_MAX",
      "Uni v",
      "col lapse",
      "contribu ted",
      "restr ict",
      "thread_l imit",
      "\" +",
      "/ \"+",
      "1 49",
      "2 4",
      "5 27",
      "5 23",
      "< <",
      "A bor",
      "B ool",
      "C h",
      "G A",
      "G et",
      "T T",
      "T ask",
      "] @",
      "] \",",
      "_ w",
      "_ task",
      "_ 2d",
      "_ imper",
      "_ Bool",
      "a b",
      "a j",
      "c la",
      "e v",
      "g g",
      "i g",
      "i p",
      "j 2",
      "k 2",
      "l ing",
      "m v",
      "o 1",
      "o duc",
      "p o",
      "p y",
      "q q",
      "r d",
      "s z",
      "s ert",
      "t ou",
      "t ing",
      "u es",
      "x 1",
      "x 10",
      "x py",
      "{ }",
      "al ing",
      "++ ,",
      "id th",
      "-(( -",
      "v_ out",
      "?(( (",
      "alloc ate",
      "val _w",
      "val ues",
      "ex ecut",
      "Write _set",
      "mis sing",
      "var iable",
      "() .",
      "() ==",
      "th rd",
      "(((( (((((",
      "schedu ling",
      "))?(( (((((",
      "ment s",
      "out Len",
      "99 2",
      "10 48",
      "tri gg",
      "num_ sz",
      "co e",
      "du ce",
      "pro duce",
      "]!= -",
      "tmp 1",
      "mat rix",
      "barrier_ start",
      "barrier_ init",
      "barrier_ destroy",
      "barrier_ stop",
      "_num _threads",
      "53 1",
      "match Mis",
      ".. .\\",
      "kernel_ jacobi",
      "kernel_ 3mm",
      "kernel_ adi",
      "sa xpy",
      "consum e",
      "sign aling",
      "incr_ a",
      "gen _task",
      "write _path",
      "nE le",
      "Pr oduc",
      "Con sum",
      "inter val_w",
      "remo ve",
      "seg ments",
      "149 2",
      "Abor ting",
      "Ch ild",
      "_2d _imper",
      "ev en",
      "tou ched",
      "x10 24",
      "execut ion",
      "trigg er",
      "matchMis smatchScore",
      "kernel_jacobi _2d_imper",
      "interval_w idth",
      ") ][",
      "4 0",
      "7 0",
      "E x",
      "E lement",
      "F ib",
      "F unction",
      "G en",
      "N ON",
      "P I",
      "P ur",
      "R ice",
      "Y iz",
      "[ ]",
      "] -=",
      "_ c",
      "_ p",
      "a x",
      "a ck",
      "c il",
      "d v_",
      "f ai",
      "g a",
      "g ap",
      "j 1",
      "k 1",
      "k ip",
      "m y",
      "m _n",
      "m _p",
      "n Diag",
      "p er",
      "p os",
      "q _c",
      "r 1",
      "s kip",
      "t x",
      "t ol",
      "t ter",
      "v el",
      "w e",
      "w o",
      "w ork",
      "in al",
      "in sert",
      "st en",
      "de la",
      "or ig",
      "le tter",
      "le vel",
      "re fin",
      "ou ld",
      "se q_c",
      "lu res",
      "no bug",
      "loc ate",
      "sp ace",
      "val ue",
      "temp file",
      "omp_ set",
      "omp_ set_nest_lock",
      "sh ould",
      "num_ steps",
      "omp_un set_nest_lock",
      "du e",
      "25 6",
      "omp_get _num_threads",
      "ap pend",
      "pair s",
      "cop y",
      "Al locate",
      "nE lement",
      "tra iner",
      "similarity Score",
      "Indigo3_ bug",
      "Indigo3_ nobug",
      "\") :",
      "line s",
      "ome ga",
      "cla use",
      "po se",
      "NON E",
      "Pur pose",
      "Yiz i",
      "cil _",
      "dv_ sum",
      "fai lures",
      "gap Score",
      "my tempfile",
      "m_n vol",
      "m_p dv_sum",
      "pos ition",
      "tx t",
      "sten cil_",
      "dela y",
      "orig inal",
      "refin e",
      "seq_c st",
      "Allocate s",
      "\" /\"+",
      "' ,",
      "' ←",
      "' ↑",
      "( ))",
      ") :",
      ") ++;",
      ") =%",
      ") ][-",
      "* ));",
      "* *)",
      "+ \"/\"+",
      "0 f",
      "0 54",
      "4 00",
      "5 6",
      "6 2",
      "6 6",
      "9 23",
      ": %",
      "> -",
      "? -((-",
      "A G",
      "A L",
      "A TT",
      "B P",
      "B U",
      "B pe",
      "C TT",
      "D E",
      "D I",
      "F T",
      "F irst",
      "H S",
      "H el",
      "M _",
      "M at",
      "N K",
      "P A",
      "P res",
      "R HS",
      "S i",
      "S ize",
      "S te",
      "S um",
      "T H",
      "T o",
      "T ra",
      "T wo",
      "U P",
      "U NK",
      "W h",
      "W u",
      "W en",
      "[ ],",
      "] <=",
      "] ==",
      "] };",
      "_ no",
      "_ from",
      "_ com",
      "_ input",
      "_ token",
      "_ code",
      "a c",
      "a f",
      "a ch",
      "a nt",
      "a il",
      "a ccess",
      "b al",
      "b ack",
      "c f",
      "c alloc",
      "c are",
      "d im",
      "d Bug",
      "d ri",
      "e ge",
      "e space",
      "f n",
      "f lush",
      "f ail",
      "l ld",
      "m e",
      "m er",
      "m its",
      "n ing",
      "n one",
      "n ame",
      "o 8",
      "o st",
      "o op",
      "o pen",
      "q u",
      "s in",
      "s ion",
      "s ame",
      "s rand",
      "s ome",
      "t here",
      "w ar",
      "w are",
      "x 1000",
      "z er",
      "{ &",
      "{ };",
      "st or",
      "st ed",
      "st private",
      "de cess",
      "de allocate",
      "it espace",
      ")) :",
      "al low",
      "ar dBug",
      "data set",
      "im um",
      "en sion",
      "ag e",
      "re la",
      "re as",
      "se ed",
      "omp _nest_lock",
      "be t",
      "lo ad",
      "lo bal",
      "ge able",
      "no w",
      "te cted",
      "?(( (((",
      "?(( ((((",
      "la ware",
      "la stprivate",
      "tex inout",
      "ph en",
      "== =",
      "new_ o8",
      "di rect",
      "iterat ion",
      "Re al",
      "max imum",
      "ex it",
      "Read _set",
      "mis smatchScore",
      "set up",
      "(((( ((((",
      "100 1",
      "fin es",
      "read lines",
      "task loop",
      "source _code",
      "check ing",
      "pre _",
      "pre decess",
      "10 x1024",
      "num_ refine",
      "))))?(( (",
      "20 48",
      "20 x1000",
      "fo pen",
      "cond ition",
      "foo 1",
      "49 7",
      "omp_init _nest_lock",
      "omp_destroy _nest_lock",
      "ha o",
      "file _path",
      "ken izer",
      "No te",
      ".. .",
      "De laware",
      "De fines",
      "LE FT",
      "consum er",
      "Be cause",
      "calc First",
      "mm m",
      "loop s",
      "mu texinout",
      "with in",
      "corpus _no",
      "erate s",
      "produc er",
      "tra ck",
      "Gu ardBug",
      "ON AL",
      "bound s",
      "line ar",
      "vol new_o8",
      "Diag Element",
      "Calculate s",
      "GA ATT",
      "GA CTT",
      "ab out",
      "variable s",
      "coe f",
      "coe ff",
      "Produc er",
      "Produc ed",
      "Consum er",
      "Consum ed",
      "Ex pected",
      "Gen erates",
      "per s",
      "copy in",
      "stencil_ calc",
      "'← '",
      "'↑ '",
      "054 3",
      "400 0",
      "AG ONAL",
      "BP E",
      "BU G",
      "Bpe Tra",
      "DE BUG",
      "DI AGONAL",
      "Hel pers",
      "M_ PI",
      "Mat rix",
      "Pres ent",
      "Si ege",
      "Ste phen",
      "To kenizer",
      "Wh itespace",
      "Wen hao",
      "_from _input",
      "_com ment",
      "ac qu",
      "af ter",
      "ant s",
      "back track",
      "care ful",
      "dim ension",
      "dri ver",
      "fail s",
      "mer geable",
      "sin k",
      "war ning",
      "zer os",
      "stor age",
      "rela x",
      "reas ing",
      "omp_nest_lock _t",
      "load _from_input",
      "direct ive",
      "predecess or",
      "10x1024 x1024",
      "calcFirst DiagElement",
      "mutexinout set",
      "corpus_no _comment",
      "GAATT CA",
      "BpeTra iner",
      "Siege l",
      "acqu ire",
      "\" %",
      "\" ])",
      "\" <<",
      "' )",
      ") (",
      ") -",
      "+ \");",
      "/ (",
      "/ ((",
      "0 1",
      "0 5",
      "2 6",
      "2 8",
      "3 0",
      "3 4",
      "9 6",
      "9 7",
      "; }",
      "= [",
      "= \"[",
      "A n",
      "A ach",
      "C o",
      "C la",
      "C ent",
      "C op",
      "D et",
      "E P",
      "F I",
      "G lobal",
      "I ter",
      "J o",
      "L oop",
      "R W",
      "R and",
      "S K",
      "S im",
      "S tr",
      "S ig",
      "S EP",
      "T im",
      "T ot",
      "T est",
      "U p",
      "W e",
      "W ith",
      "[ *",
      "] \\",
      "] \"))",
      "] \"])",
      "_ vo",
      "_ initial",
      "_ dynamic",
      "_ list",
      "_ device",
      "a cc",
      "a ut",
      "a using",
      "b l",
      "b s",
      "b t",
      "b us",
      "c i",
      "c lo",
      "c out",
      "c assert",
      "c arri",
      "c ab",
      "c ausing",
      "e ad",
      "f clo",
      "g r",
      "g one",
      "g lobal",
      "h ost",
      "i ent",
      "i ke",
      "i ost",
      "j s",
      "k es",
      "l s",
      "l ike",
      "m n",
      "m ist",
      "m set",
      "n ce",
      "n Matrix",
      "o ve",
      "o bt",
      "o ci",
      "p u",
      "p ing",
      "p pen",
      "q r",
      "q ue",
      "r al",
      "r ong",
      "s b",
      "s f",
      "s m",
      "s w",
      "s or",
      "s er",
      "s id",
      "s ug",
      "s ync",
      "s cor",
      "s core",
      "s match",
      "s qr",
      "t w",
      "t ion",
      "t wo",
      "u al",
      "u re",
      "v ed",
      "v ing",
      "w time",
      "w rong",
      "z e",
      "in st",
      "st able",
      "st ack",
      "st ants",
      "int o",
      "at ic",
      "at ions",
      "on acc",
      "const ants",
      "ize d",
      "de le",
      "de ri",
      "de pen",
      "de ls",
      "de nce",
      "or es",
      "or ization",
      "er mine",
      "al read",
      "ar ace",
      "00 L",
      "dat es",
      "dat arace",
      "om atic",
      "ic h",
      "ic ient",
      "en su",
      "re am",
      "re co",
      "re que",
      "ma kes",
      "ou p",
      "be cause",
      "end l",
      "end if",
      "ge sted",
      "lu mn",
      "lu tion",
      "if y",
      "if def",
      "15 00",
      "loc ation",
      "us er",
      "te ction",
      "0000 0000",
      "la bs",
      "un able",
      "][ %",
      "index ing",
      "ver ify",
      "CL S",
      "get _vo",
      "val id",
      "new_ pro",
      "return s",
      "an sw",
      "min ed",
      "is file",
      "is _initial",
      "wh ich",
      "]) /",
      "\", \"",
      "Re ference",
      "Re sid",
      "max _threads",
      "ss ic",
      "ial _token",
      "initial Tim",
      "ct orization",
      "sim ulate",
      "struct ure",
      "mis smatch",
      "() %",
      "() \\",
      "dec reasing",
      "MA SK",
      "add ition",
      "omp_ is_initial",
      "]= (",
      "std int",
      "ing s",
      "ass oci",
      "task gr",
      "ve ctorization",
      "over lap",
      "ter n",
      "pre deter",
      "pre ser",
      "lt ip",
      "bu t",
      "one s",
      "20 15",
      "20 40",
      "_t ol",
      "ak e",
      "Line s",
      "result s",
      "pro per",
      "pro tected",
      "pro tection",
      "25 60",
      "In sert",
      "ha ppen",
      "error _tol",
      "unk _token",
      "op er",
      "ot ze",
      "** ));",
      "** *)",
      "** **",
      "** *));",
      "** **)",
      "]* (",
      "]* =",
      "pat tern",
      "83 2040",
      "omp_get_ wtime",
      "omp_get_ max_threads",
      "_nest ed",
      "51 7",
      "512 00L",
      "rect ly",
      "De tected",
      "gn ized",
      "sa ve",
      "inc reasing",
      "Al pha",
      "comp ared",
      "calc Element",
      "string s",
      "20000 0000",
      "mu ltip",
      "St ores",
      "mo ve",
      "mo dels",
      "so lution",
      "add_ sor",
      "Variable s",
      "spec ial_token",
      "Di rectly",
      "Pr oper",
      "Pr otze",
      "ted _list",
      "tra in",
      "alpha bet",
      "Con stants",
      "Mis sing",
      "ecut ed",
      "inter s",
      "remo ving",
      "<< \"",
      "Get s",
      "ab ove",
      "cla ss",
      "po inters",
      "matrix es",
      "40 96",
      "Ex ecuted",
      "Fib onacc",
      "[] :",
      "omp_set _num_threads",
      "omp_set _dynamic",
      "omp_set _nested",
      "copy private",
      "trainer s",
      "stencil_ in",
      "()) /((",
      "PA D",
      "PA TH",
      "ach im",
      "me sh",
      "me mset",
      "name space",
      "oop s",
      "allow s",
      "pre_ tokenizer",
      "pre_ tokenizers",
      "coeff icient",
      "dimension al",
      "=[ \"[",
      "An y",
      "Aach en",
      "Co lumn",
      "Cla ssic",
      "Cent ral",
      "Cop y",
      "Det ermine",
      "FI LE",
      "Iter ations",
      "Jo achim",
      "RW TH",
      "Rand om",
      "Sim ilarity",
      "Str ings",
      "Sig ma",
      "Tot al",
      "Up dates",
      "With out",
      "aut omatic",
      "bl ic",
      "bus y",
      "carri ed",
      "fclo se",
      "iost ream",
      "js on",
      "mist ake",
      "obt ain",
      "pu blic",
      "sug gested",
      "scor es",
      "sqr t",
      "tw ice",
      "inst ead",
      "dele te",
      "deri ved",
      "depen dence",
      "alread y",
      "ensu re",
      "reco gnized",
      "reque sted",
      "00000000 01",
      "get_vo cab",
      "new_pro c",
      "answ er",
      "Reference s",
      "Resid ual",
      "initialTim e",
      "omp_is_initial _device",
      "associ ate",
      "taskgr oup",
      "overlap ping",
      "predeter mined",
      "preser ve",
      "proper ly",
      "Insert s",
      "happen s",
      "Alpha bet",
      "multip le",
      "add_sor ted_list",
      "special_token s",
      "Fibonacc i",
      "coefficient s",
      "Column s"
    ]
  }
}