{
  "version": "1.0",
  "truncation": null,
  "padding": null,
  "added_tokens": [
    {
      "id": 0,
      "content": "[UNK]",
      "single_word": false,
      "lstrip": false,
      "rstrip": false,
      "normalized": false,
      "special": true
    },
    {
      "id": 1,
      "content": "[CLS]",
      "single_word": false,
      "lstrip": false,
      "rstrip": false,
      "normalized": false,
      "special": true
    },
    {
      "id": 2,
      "content": "[SEP]",
      "single_word": false,
      "lstrip": false,
      "rstrip": false,
      "normalized": false,
      "special": true
    },
    {
      "id": 3,
      "content": "[PAD]",
      "single_word": false,
      "lstrip": false,
      "rstrip": false,
      "normalized": false,
      "special": true
    },
    {
      "id": 4,
      "content": "[MASK]",
      "single_word": false,
      "lstrip": false,
      "rstrip": false,
      "normalized": false,
      "special": true
    }
  ],
  "normalizer": null,
  "pre_tokenizer": {
    "type": "Whitespace"
  },
  "post_processor": null,
  "decoder": null,
  "model": {
    "type": "BPE",
    "dropout": null,
    "unk_token": "[UNK]",
    "continuing_subword_prefix": null,
    "end_of_word_suffix": null,
    "fuse_unk": false,
    "byte_fallback": false,
    "ignore_merges": false,
    "vocab": {
      "[UNK]": 0,
      "[CLS]": 1,
      "[SEP]": 2,
      "[PAD]": 3,
      "[MASK]": 4,
      "!": 5,
      "\"": 6,
      "#": 7,
      "%": 8,
      "&": 9,
      "'": 10,
      "(": 11,
      ")": 12,
      "*": 13,
      "+": 14,
      ",": 15,
      "-": 16,
      ".": 17,
      "/": 18,
      "0": 19,
      "1": 20,
      "2": 21,
      "3": 22,
      "4": 23,
      "5": 24,
      "6": 25,
      "7": 26,
      "8": 27,
      "9": 28,
      ":": 29,
      ";": 30,
      "<": 31,
      "=": 32,
      ">": 33,
      "?": 34,
      "@": 35,
      "A": 36,
      "B": 37,
      "C": 38,
      "D": 39,
      "E": 40,
      "F": 41,
      "G": 42,
      "H": 43,
      "I": 44,
      "J": 45,
      "L": 46,
      "M": 47,
      "N": 48,
      "O": 49,
      "P": 50,
      "R": 51,
      "S": 52,
      "T": 53,
      "U": 54,
      "V": 55,
      "W": 56,
      "X": 57,
      "Y": 58,
      "Z": 59,
      "[": 60,
      "\\": 61,
      "]": 62,
      "_": 63,
      "a": 64,
      "b": 65,
      "c": 66,
      "d": 67,
      "e": 68,
      "f": 69,
      "g": 70,
      "h": 71,
      "i": 72,
      "j": 73,
      "k": 74,
      "l": 75,
      "m": 76,
      "n": 77,
      "o": 78,
      "p": 79,
      "q": 80,
      "r": 81,
      "s": 82,
      "t": 83,
      "u": 84,
      "v": 85,
      "w": 86,
      "x": 87,
      "y": 88,
      "z": 89,
      "{": 90,
      "|": 91,
      "}": 92,
      "←": 93,
      "↑": 94,
      "↖": 95,
      "in": 96,
      "st": 97,
      "int": 98,
      "16": 99,
      "at": 100,
      "on": 101,
      "((": 102,
      ");": 103,
      "con": 104,
      "const": 105,
      "si": 106,
      "ze": 107,
      "wl": 108,
      "size": 109,
      "de": 110,
      "it": 111,
      "or": 112,
      "))": 113,
      "er": 114,
      "al": 115,
      "ar": 116,
      "00": 117,
      "dat": 118,
      "pe": 119,
      "ist": 120,
      "le": 121,
      "ty": 122,
      "type": 123,
      "for": 124,
      "data": 125,
      "++": 126,
      "ti": 127,
      "om": 128,
      "pr": 129,
      "wl1": 130,
      "_type": 131,
      "data_type": 132,
      "me": 133,
      "time": 134,
      "ic": 135,
      "++)": 136,
      "ag": 137,
      "en": 138,
      "stat": 139,
      "re": 140,
      "dist": 141,
      "wl2": 142,
      "ma": 143,
      "nl": 144,
      "ou": 145,
      "se": 146,
      "c2": 147,
      "iter": 148,
      "nj": 149,
      "];": 150,
      "omp": 151,
      "c4": 152,
      "//": 153,
      "be": 154,
      "of": 155,
      "lo": 156,
      "end": 157,
      "-(": 158,
      "nk": 159,
      "(&": 160,
      "ge": 161,
      "lu": 162,
      "clu": 163,
      "id": 164,
      "clude": 165,
      "if": 166,
      "15": 167,
      "rc": 168,
      "no": 169,
      "c3": 170,
      "ew": 171,
      "ed": 172,
      "src": 173,
      "-((": 174,
      "-((-(": 175,
      "));": 176,
      "loc": 177,
      "ble": 178,
      "dou": 179,
      "double": 180,
      "prag": 181,
      "pragma": 182,
      "c1": 183,
      "nm": 184,
      "wl1size": 185,
      "include": 186,
      "us": 187,
      "sec": 188,
      "status": 189,
      "te": 190,
      "go": 191,
      "v_": 192,
      "tv_": 193,
      "node": 194,
      "0000": 195,
      "nodes": 196,
      "?((": 197,
      "wl2size": 198,
      "new": 199,
      "art": 200,
      "la": 201,
      "start": 202,
      "alloc": 203,
      "init": 204,
      "un": 205,
      "sizeof": 206,
      "malloc": 207,
      "ra": 208,
      "bel": 209,
      "label": 210,
      "par": 211,
      "static": 212,
      "fre": 213,
      "free": 214,
      "<=": 215,
      "][": 216,
      "ain": 217,
      "ch": 218,
      "again": 219,
      "goagain": 220,
      "ni": 221,
      "inde": 222,
      "index": 223,
      ")))": 224,
      "nindex": 225,
      "idx": 226,
      "ver": 227,
      "rit": 228,
      "dst": 229,
      "nt": 230,
      "sp": 231,
      "ur": 232,
      "vo": 233,
      "void": 234,
      "nlist": 235,
      "tex": 236,
      "vertex": 237,
      "ph": 238,
      "ad": 239,
      "==": 240,
      "gra": 241,
      "pri": 242,
      "?-((-(": 243,
      "CL": 244,
      "ECL": 245,
      "graph": 246,
      "ECLgraph": 247,
      "get": 248,
      "edge": 249,
      "beg": 250,
      "atom": 251,
      "atomic": 252,
      "ei": 253,
      "(((": 254,
      "val": 255,
      "new_": 256,
      "ity": 257,
      "ority": 258,
      "priority": 259,
      "LL": 260,
      "NU": 261,
      "NULL": 262,
      "ay": 263,
      "_vertex": 264,
      "day": 265,
      "usec": 266,
      "timeof": 267,
      "tv_sec": 268,
      "tv_usec": 269,
      "gettimeof": 270,
      "gettimeofday": 271,
      "ret": 272,
      "],": 273,
      "urn": 274,
      "return": 275,
      "alle": 276,
      "paralle": 277,
      "parallel": 278,
      "an": 279,
      "gh": 280,
      "10000": 281,
      "print": 282,
      "run": 283,
      "runtime": 284,
      "eigh": 285,
      "1000000": 286,
      "min": 287,
      "included": 288,
      "hi": 289,
      "++;": 290,
      "di": 291,
      "printf": 292,
      "!=": 293,
      "iterat": 294,
      "(\"": 295,
      "])": 296,
      "_n": 297,
      "ru": 298,
      "Re": 299,
      "is": 300,
      "\",": 301,
      "max": 302,
      "crit": 303,
      "ical": 304,
      "critical": 305,
      "ss": 306,
      "up": 307,
      "whi": 308,
      "while": 309,
      "her": 310,
      "ount": 311,
      "_new": 312,
      "ial": 313,
      "ent": 314,
      "parent": 315,
      "initial": 316,
      "new_dist": 317,
      "_vertex_": 318,
      "def": 319,
      "ce": 320,
      "ize": 321,
      "edges": 322,
      "count": 323,
      "here": 324,
      "initialize": 325,
      "ug": 326,
      "Bug": 327,
      "(*": 328,
      "--": 329,
      "mp": 330,
      "sim": 331,
      "ex": 332,
      "simd": 333,
      "))))": 334,
      "Read": 335,
      "minv": 336,
      "eweigh": 337,
      "eweight": 338,
      "do": 339,
      "atomicRead": 340,
      "ct": 341,
      "ep": 342,
      "rep": 343,
      "12": 344,
      "temp": 345,
      "*)": 346,
      "rite": 347,
      "Write": 348,
      "wlsize": 349,
      "ion": 350,
      "atomicWrite": 351,
      "critical_": 352,
      "ruct": 353,
      "ray": 354,
      "typedef": 355,
      "struct": 356,
      "array": 357,
      "indi": 358,
      "timeval": 359,
      "lock": 360,
      "go_": 361,
      "indigo_": 362,
      "maxval": 363,
      "updat": 364,
      "&&": 365,
      "]);": 366,
      "and": 367,
      "iteration": 368,
      "ace": 369,
      "iterations": 370,
      "Race": 371,
      "RaceBug": 372,
      "mis": 373,
      "lost": 374,
      "cc": 375,
      "bf": 376,
      "sssp": 377,
      "bfs": 378,
      "exclude": 379,
      "ol": 380,
      "var": 381,
      "arep": 382,
      "edx": 383,
      "(-": 384,
      "?-(": 385,
      "am": 386,
      "yn": 387,
      "su": 388,
      "dec": 389,
      "CP": 390,
      "CPU": 391,
      "set": 392,
      "?(-": 393,
      "_edge": 394,
      "brep": 395,
      "?-(-": 396,
      "AX": 397,
      "MAX": 398,
      "()": 399,
      "ide": 400,
      "decide": 401,
      "decided": 402,
      "cnt": 403,
      "excluded": 404,
      "as": 405,
      "new_label": 406,
      "mor": 407,
      "((((": 408,
      "undecided": 409,
      "len": 410,
      "main": 411,
      "th": 412,
      "status_n": 413,
      "chan": 414,
      "_vertex_omp": 415,
      "change": 416,
      "til": 417,
      "until": 418,
      "iterate": 419,
      "more": 420,
      "changes": 421,
      ")]": 422,
      "bor": 423,
      "status_new": 424,
      "add": 425,
      "neigh": 426,
      "neighbor": 427,
      ">=": 428,
      "AP": 429,
      "SW": 430,
      "SWAP": 431,
      "ool": 432,
      "ch_": 433,
      "ched": 434,
      "updated": 435,
      "bool": 436,
      "sched": 437,
      "schedu": 438,
      "schedule": 439,
      "dyn": 440,
      "amic": 441,
      "dynamic": 442,
      "arg": 443,
      "et": 444,
      "stdi": 445,
      "stdio": 446,
      "el": 447,
      "fal": 448,
      "counter": 449,
      "false": 450,
      "100": 451,
      "omp_": 452,
      "nd": 453,
      "))?((": 454,
      "_vertex_data": 455,
      "----": 456,
      "->": 457,
      "_add": 458,
      "fet": 459,
      "and_add": 460,
      "ch_and_add": 461,
      "fetch_and_add": 462,
      "ri": 463,
      "]=": 464,
      "fin": 465,
      "tru": 466,
      "true": 467,
      "_edge_": 468,
      "arrays": 469,
      "(){": 470,
      "find": 471,
      "||": 472,
      "else": 473,
      "read": 474,
      "dist_new": 475,
      "dist_n": 476,
      "rom": 477,
      "++){": 478,
      "cur": 479,
      "upd": 480,
      "countervar": 481,
      "curr": 482,
      "128": 483,
      "critical_max": 484,
      "_lock": 485,
      "std": 486,
      "ork": 487,
      "))?(((": 488,
      "list": 489,
      "orklist": 490,
      "the": 491,
      "ing": 492,
      "13": 493,
      "ask": 494,
      "ass": 495,
      "task": 496,
      "ine": 497,
      "();": 498,
      "500": 499,
      "]])": 500,
      "mst": 501,
      "wei": 502,
      "worklist": 503,
      "c0": 504,
      "ck": 505,
      "critical_min": 506,
      "IN": 507,
      "all": 508,
      "*/": 509,
      "/*": 510,
      "19": 511,
      "fi": 512,
      "ate": 513,
      "sum": 514,
      "update": 515,
      "mrep": 516,
      "Rep": 517,
      "findRep": 518,
      "_MAX": 519,
      "um": 520,
      "_edge_omp": 521,
      "T_MAX": 522,
      "INT_MAX": 523,
      "vate": 524,
      "private": 525,
      "ve": 526,
      "87": 527,
      "ll": 528,
      "label_n": 529,
      "argc": 530,
      "argv": 531,
      "tion": 532,
      "label_new": 533,
      "define": 534,
      "ment": 535,
      "ound": 536,
      "from": 537,
      "li": 538,
      "found": 539,
      "nex": 540,
      "--------": 541,
      "mst_": 542,
      "next": 543,
      "(((((": 544,
      "+=": 545,
      "c8": 546,
      "set_lock": 547,
      "to": 548,
      "pass": 549,
      "tid": 550,
      "block": 551,
      "=%": 552,
      "sou": 553,
      "lement": 554,
      "rce": 555,
      "source": 556,
      "step": 557,
      "distan": 558,
      "steps": 559,
      "distance": 560,
      "over": 561,
      "such": 562,
      "num": 563,
      "sh": 564,
      "indigo_cc": 565,
      "indigo_sssp": 566,
      "indigo_bfs": 567,
      "CPUcc": 568,
      "CPUsssp": 569,
      "CPUbfs": 570,
      "element": 571,
      "))));": 572,
      "c5": 573,
      "tar": 574,
      "team": 575,
      "123": 576,
      "target": 577,
      "teams": 578,
      "eck": 579,
      "map": 580,
      "check": 581,
      "ync": 582,
      "stdli": 583,
      "stdlib": 584,
      "Mi": 585,
      "Sync": 586,
      "ter": 587,
      "xSync": 588,
      "MixSync": 589,
      "MixSyncBug": 590,
      "WL": 591,
      "ev": 592,
      "yb": 593,
      "887": 594,
      "99": 595,
      "tsteps": 596,
      "out": 597,
      "char": 598,
      "(%": 599,
      "CA": 600,
      "lt": 601,
      "elements": 602,
      "test": 603,
      "prev": 604,
      "end1": 605,
      "critical_CA": 606,
      "cc_vertex_data": 607,
      "sssp_vertex_data": 608,
      "critical_CAS": 609,
      ")\\": 610,
      "has": 611,
      "deter": 612,
      "mine": 613,
      "%%": 614,
      "1f": 615,
      "7123": 616,
      "MP": 617,
      "OMP": 618,
      "indigo_mis": 619,
      "13887": 620,
      "(%.": 621,
      "hash": 622,
      "determine": 623,
      "%%)\\": 624,
      "712313887": 625,
      "OMPmis": 626,
      "depe": 627,
      "_edge_data": 628,
      "bu": 629,
      "depend": 630,
      "pol": 631,
      "ice": 632,
      "ribu": 633,
      "yben": 634,
      "polyben": 635,
      "c15": 636,
      "ert": 637,
      "10": 638,
      "vice": 639,
      "device": 640,
      "ared": 641,
      "[])": 642,
      "distribu": 643,
      "shared": 644,
      "distribute": 645,
      "\");": 646,
      "]]": 647,
      "ait": 648,
      "tof": 649,
      "wait": 650,
      "end2": 651,
      "start1": 652,
      "start2": 653,
      "indigo_bfs_vertex_omp": 654,
      "CPUbfs_vertex": 655,
      "tofrom": 656,
      "::": 657,
      "assert": 658,
      "tri": 659,
      "thread": 660,
      "indigo_cc_vertex_omp": 661,
      "indigo_sssp_vertex_omp": 662,
      "CPUcc_vertex": 663,
      "CPUsssp_vertex": 664,
      "rst": 665,
      "one": 666,
      ")))))": 667,
      ")))));": 668,
      "num_": 669,
      "]))": 670,
      "))))?((": 671,
      "bfs_vertex_data": 672,
      "ho": 673,
      "arri": 674,
      "first": 675,
      "20": 676,
      "Li": 677,
      "_count": 678,
      "who": 679,
      "lockBug": 680,
      "]=%": 681,
      "fill": 682,
      "velockBug": 683,
      "arrier": 684,
      "LivelockBug": 685,
      "c9": 686,
      "32": 687,
      "cond": 688,
      "omp_un": 689,
      "29": 690,
      "_t": 691,
      "ak": 692,
      "tr": 693,
      "str": 694,
      ")[": 695,
      "Count": 696,
      "]))))": 697,
      "bre": 698,
      "gsize": 699,
      "g_count": 700,
      "jo": 701,
      "non": 702,
      "tc": 703,
      "wn": 704,
      "second": 705,
      "section": 706,
      "beg1": 707,
      "beg2": 708,
      "gher": 709,
      "higher": 710,
      "neighbors": 711,
      "mst_first": 712,
      "mst_second": 713,
      "indigo_mis_vertex_omp": 714,
      "OMPmis_vertex": 715,
      "triCount": 716,
      "whose": 717,
      "try": 718,
      "break": 719,
      "join": 720,
      "triCounting": 721,
      "65": 722,
      "omp_set_lock": 723,
      "omp_unset_lock": 724,
      "Ad": 725,
      "ction": 726,
      "ong": 727,
      "criticalAd": 728,
      "criticalAdd": 729,
      "long": 730,
      "){": 731,
      "barrier": 732,
      "_vertex_pass": 733,
      "mis_vertex_pass": 734,
      "1000": 735,
      "Line": 736,
      "(\"%": 737,
      "taskwait": 738,
      "Bla": 739,
      "ase": 740,
      "c7": 741,
      "es": 742,
      "ill": 743,
      "resu": 744,
      "//+": 745,
      "nkLine": 746,
      "c10": 747,
      "----------------": 748,
      "polybench_": 749,
      "BlankLine": 750,
      "result": 751,
      "50": 752,
      "pa": 753,
      "ation": 754,
      "co": 755,
      "du": 756,
      "sing": 757,
      "xa": 758,
      "ut": 759,
      "48": 760,
      "fo": 761,
      "are": 762,
      "--;": 763,
      "))?(((((": 764,
      "49": 765,
      "ea": 766,
      "der": 767,
      "sublock": 768,
      "addlock": 769,
      "55": 770,
      "]],": 771,
      "au": 772,
      "pro": 773,
      "foo": 774,
      "[-": 775,
      "]!=": 776,
      "single": 777,
      "base": 778,
      "lf": 779,
      "lck": 780,
      "oy": 781,
      "ror": 782,
      "tmp": 783,
      "still": 784,
      "destr": 785,
      "destroy": 786,
      "64": 787,
      "63": 788,
      "eit": 789,
      "l0": 790,
      "l1": 791,
      "ly": 792,
      "mer": 793,
      "either": 794,
      "25": 795,
      "200": 796,
      "_block": 797,
      "his": 798,
      "(((((((": 799,
      "57": 800,
      "89": 801,
      "timer": 802,
      "low": 803,
      "100000": 804,
      "((((((": 805,
      "omp_init": 806,
      "omp_destroy": 807,
      "mat": 808,
      ")));": 809,
      "?((((": 810,
      "threads": 811,
      "mar": 812,
      "put": 813,
      "][-": 814,
      "sum1": 815,
      "lower": 816,
      "omp_init_lock": 817,
      "omp_destroy_lock": 818,
      "mark": 819,
      "]+": 820,
      "ha": 821,
      "ue": 822,
      "inout": 823,
      "cess": 824,
      "60": 825,
      "MIN": 826,
      "cor": 827,
      "fprintf": 828,
      "oi": 829,
      "u1": 830,
      "atoi": 831,
      "its": 832,
      "error": 833,
      "127": 834,
      "barrier_": 835,
      ",(": 836,
      "61": 837,
      "In": 838,
      "_size": 839,
      "ccess": 840,
      "hread": 841,
      "il": 842,
      "this": 843,
      "stder": 844,
      "130": 845,
      "190": 846,
      "each": 847,
      "_block_size": 848,
      "stderr": 849,
      "21": 850,
      "27": 851,
      "_data": 852,
      "_array": 853,
      "ker": 854,
      "nel": 855,
      "op": 856,
      "ot": 857,
      "own": 858,
      "unk": 859,
      "was": 860,
      ")),(": 861,
      "++]": 862,
      "self": 863,
      "best": 864,
      "nown": 865,
      "alloc_data": 866,
      "])(": 867,
      "_num": 868,
      "initially": 869,
      "(*)[": 870,
      "indigo_mst": 871,
      "indigo_tc": 872,
      "cc_edge_data": 873,
      "sssp_edge_data": 874,
      "CPUmst": 875,
      "CPUtc": 876,
      "stdbool": 877,
      "ckag": 878,
      "indigo_cc_edge_omp": 879,
      "indigo_sssp_edge_omp": 880,
      "CPUcc_edge": 881,
      "CPUsssp_edge": 882,
      "polybench": 883,
      "polybench_alloc_data": 884,
      "packag": 885,
      "have": 886,
      "kernel": 887,
      "unknown": 888,
      "Access": 889,
      "Iss": 890,
      "Me": 891,
      "isi": 892,
      "visi": 893,
      "cted": 894,
      "mory": 895,
      "num_threads": 896,
      "Issue": 897,
      "Memory": 898,
      "visible": 899,
      "(-(": 900,
      ")++]": 901,
      "?(-(": 902,
      "[(*": 903,
      "fl": 904,
      "nor": 905,
      "neither": 906,
      "remain": 907,
      "lock_t": 908,
      "?-(-(": 909,
      "that": 910,
      "omp_lock_t": 911,
      "sum0": 912,
      "indigo_bfs_edge_omp": 913,
      "CPUbfs_edge": 914,
      "indigo_mis_edge_omp": 915,
      "OMPmis_edge": 916,
      "ault": 917,
      "other": 918,
      "flag": 919,
      "remaining": 920,
      "(+": 921,
      "pected": 922,
      "redu": 923,
      "(+:": 924,
      "reduction": 925,
      "**": 926,
      "18": 927,
      "187": 928,
      "53": 929,
      "67": 930,
      "69": 931,
      "94": 932,
      "won": 933,
      "164": 934,
      "159": 935,
      "120": 936,
      "bfs_edge_data": 937,
      "133": 938,
      "xa1": 939,
      "xa2": 940,
      ",\"": 941,
      "by": 942,
      "xx": 943,
      "yy": 944,
      "expected": 945,
      "omp_get": 946,
      "71": 947,
      "IZ": 948,
      "MS": 949,
      "[%": 950,
      "c6": 951,
      "com": 952,
      "done": 953,
      "ff": 954,
      "l2": 955,
      "mon": 956,
      "u2": 957,
      "inWL": 958,
      "lush": 959,
      "))))))": 960,
      ")))))))": 961,
      "decl": 962,
      "fib": 963,
      "num_teams": 964,
      "sections": 965,
      "--------------------------------": 966,
      "polybench_timer": 967,
      "packages": 968,
      "IZE": 969,
      "MSIZE": 970,
      "common": 971,
      "polybench_timer_": 972,
      "-=": 973,
      "Thread": 974,
      "]+=": 975,
      "ir": 976,
      "race": 977,
      "pair": 978,
      "11": 979,
      "1st": 980,
      "23": 981,
      "2nd": 982,
      "83": 983,
      "Mu": 984,
      "Un": 985,
      "])))": 986,
      "bp": 987,
      "f1": 988,
      "stdou": 989,
      "unction": 990,
      "criticalRead": 991,
      "updateUn": 992,
      "498": 993,
      "core": 994,
      "omp_get_": 995,
      "fflush": 996,
      "stdout": 997,
      "updateUndecided": 998,
      "39": 999,
      "59": 1000,
      "81": 1001,
      "ap": 1002,
      "able": 1003,
      "flo": 1004,
      "alc": 1005,
      "//#": 1006,
      "154": 1007,
      "default": 1008,
      "193": 1009,
      "197": 1010,
      "cop": 1011,
      "float": 1012,
      "14": 1013,
      "521": 1014,
      "No": 1015,
      "Set": 1016,
      "Score": 1017,
      "]++;": 1018,
      "est": 1019,
      "input": 1020,
      "int64": 1021,
      "res": 1022,
      "indexSet": 1023,
      "blocks": 1024,
      "output": 1025,
      "thread_num": 1026,
      "match": 1027,
      "omp_get_thread_num": 1028,
      "int64_t": 1029,
      ")/": 1030,
      "499": 1031,
      "Len": 1032,
      "]*": 1033,
      "function": 1034,
      "use": 1035,
      "chil": 1036,
      "_nest": 1037,
      "))))?": 1038,
      "1285": 1039,
      "999": 1040,
      "child": 1041,
      "(!": 1042,
      "..": 1043,
      "51": 1044,
      "512": 1045,
      "From": 1046,
      "Worklist": 1047,
      "ber": 1048,
      "call": 1049,
      "cap": 1050,
      "hea": 1051,
      "i2": 1052,
      "sa": 1053,
      "scop": 1054,
      "ul": 1055,
      "itial": 1056,
      "reset": 1057,
      "init_array": 1058,
      "vertexes": 1059,
      "print_array": 1060,
      "updateFrom": 1061,
      "live": 1062,
      "code": 1063,
      "Include": 1064,
      "Initial": 1065,
      "indigo_mst_vertex_omp": 1066,
      "indigo_mst_edge_omp": 1067,
      "indigo_tc_vertex_omp": 1068,
      "indigo_tc_edge_omp": 1069,
      "CPUtc_vertex": 1070,
      "CPUtc_edge": 1071,
      "kernel_": 1072,
      ",\"\\": 1073,
      "declare": 1074,
      "_nest_lock": 1075,
      "header": 1076,
      "updateFromWorklist": 1077,
      "De": 1078,
      "LE": 1079,
      "dx": 1080,
      "dy": 1081,
      "iable": 1082,
      "ke": 1083,
      "vs": 1084,
      "inc": 1085,
      "istd": 1086,
      "unistd": 1087,
      "rand": 1088,
      "sume": 1089,
      "2013": 1090,
      "duc": 1091,
      "math": 1092,
      "Initialize": 1093,
      "17": 1094,
      "2lf": 1095,
      "37": 1096,
      "73": 1097,
      "85": 1098,
      "Dat": 1099,
      "comp": 1100,
      "calc": 1101,
      "iz": 1102,
      "myb": 1103,
      "npro": 1104,
      "r_": 1105,
      "};": 1106,
      "stop": 1107,
      ");;": 1108,
      "des": 1109,
      "dere": 1110,
      "ordere": 1111,
      "rect": 1112,
      "loop": 1113,
      "newS": 1114,
      "diag": 1115,
      "dire": 1116,
      "old": 1117,
      "numNo": 1118,
      "threadprivate": 1119,
      "string": 1120,
      "barrier_wait": 1121,
      "flag_t": 1122,
      "Mult": 1123,
      "keep": 1124,
      "incr_": 1125,
      "Data": 1126,
      "mybarrier": 1127,
      "nprod": 1128,
      "ordered": 1129,
      "numNodes": 1130,
      "20000": 1131,
      "].": 1132,
      "gn": 1133,
      "gen": 1134,
      "tp": 1135,
      "uold": 1136,
      "x_block_size": 1137,
      "y_block_size": 1138,
      "inLen": 1139,
      "consume": 1140,
      "sign": 1141,
      "]=((": 1142,
      "sum2": 1143,
      "utation": 1144,
      "2000": 1145,
      "correct": 1146,
      "Threads": 1147,
      "computation": 1148,
      "';": 1149,
      ")*": 1150,
      "Be": 1151,
      "Done": 1152,
      "Er": 1153,
      "End": 1154,
      "MY": 1155,
      "St": 1156,
      "aco": 1157,
      "bi": 1158,
      "ess": 1159,
      "f0": 1160,
      "fer": 1161,
      "ib": 1162,
      "jaco": 1163,
      "mu": 1164,
      "nsteps": 1165,
      "ness": 1166,
      "os": 1167,
      "sj": 1168,
      "ument": 1169,
      "will": 1170,
      "construct": 1171,
      "ith": 1172,
      "ence": 1173,
      "real": 1174,
      "local": 1175,
      "nthread": 1176,
      "phase": 1177,
      "criticalWrite": 1178,
      "argument": 1179,
      "file": 1180,
      "numThreads": 1181,
      "))))?((((": 1182,
      "aux": 1183,
      "matchScore": 1184,
      "LEN": 1185,
      "direction": 1186,
      "correctness": 1187,
      "Error": 1188,
      "MYLEN": 1189,
      "ference": 1190,
      "jacobi": 1191,
      ").": 1192,
      ".\\": 1193,
      "54": 1194,
      "Var": 1195,
      "ai": 1196,
      "can": 1197,
      "fault": 1198,
      "gth": 1199,
      "ld": 1200,
      "nE": 1201,
      "po": 1202,
      "so": 1203,
      "with": 1204,
      "z_block_size": 1205,
      "onal": 1206,
      "erate": 1207,
      "arity": 1208,
      "reference": 1209,
      "not": 1210,
      "][(-": 1211,
      "pha": 1212,
      "vars": 1213,
      "length": 1214,
      "add_": 1215,
      "number": 1216,
      "995": 1217,
      "num_vars": 1218,
      "produc": 1219,
      "ilarity": 1220,
      "used": 1221,
      "ization": 1222,
      "Start": 1223,
      "real8": 1224,
      "Variable": 1225,
      "\"\"": 1226,
      "-%": 1227,
      "2d": 1228,
      "3m": 1229,
      "42": 1230,
      "42000": 1231,
      "525": 1232,
      "911": 1233,
      "Ar": 1234,
      "All": 1235,
      "CE": 1236,
      "Can": 1237,
      "Di": 1238,
      "DCE": 1239,
      "Main": 1240,
      "Pr": 1241,
      "Pre": 1242,
      "Pos": 1243,
      "Run": 1244,
      "Sto": 1245,
      "Th": 1246,
      "This": 1247,
      "_set": 1248,
      "ben": 1249,
      "cle": 1250,
      "cif": 1251,
      "cau": 1252,
      "ding": 1253,
      "elen": 1254,
      "eve": 1255,
      "felen": 1256,
      "ise": 1257,
      "imin": 1258,
      "imp": 1259,
      "mo": 1260,
      "ncon": 1261,
      "pi": 1262,
      "pcounter": 1263,
      "spe": 1264,
      "smatchScore": 1265,
      "scan": 1266,
      "ted": 1267,
      "vent": 1268,
      "inclu": 1269,
      "strc": 1270,
      "only": 1271,
      "sid": 1272,
      "dead": 1273,
      "also": 1274,
      "alpha": 1275,
      "aration": 1276,
      "tire": 1277,
      "timed": 1278,
      "entire": 1279,
      "resid": 1280,
      "may": 1281,
      "endscop": 1282,
      "nowait": 1283,
      "blem": 1284,
      "using": 1285,
      "allocation": 1286,
      "unsign": 1287,
      "raise": 1288,
      "chmark": 1289,
      "adi": 1290,
      "],\"\"": 1291,
      "printed": 1292,
      "(\"\\": 1293,
      "Retri": 1294,
      "max_num": 1295,
      "maxPos": 1296,
      "initialization": 1297,
      "--){": 1298,
      "similarity": 1299,
      "set_nest_lock": 1300,
      "elimin": 1301,
      "rix": 1302,
      "/*--------------------------------": 1303,
      "firstprivate": 1304,
      "2025": 1305,
      "whole": 1306,
      "section_count": 1307,
      "problem": 1308,
      "_blocks": 1309,
      "package": 1310,
      "533": 1311,
      ",\"%": 1312,
      "declaration": 1313,
      "------------------------------------": 1314,
      "polybench_timer_start": 1315,
      "polybench_timer_print": 1316,
      "polybench_timer_stop": 1317,
      "Must": 1318,
      "safelen": 1319,
      "ulate": 1320,
      "Default": 1321,
      "diagonal": 1322,
      "incr_b": 1323,
      "numNodes2": 1324,
      "computational": 1325,
      "must": 1326,
      "add_Mult": 1327,
      "3mm": 1328,
      "Array": 1329,
      "Prevent": 1330,
      "Stop": 1331,
      "The": 1332,
      "benchmark": 1333,
      "clean": 1334,
      "cific": 1335,
      "cause": 1336,
      "imper": 1337,
      "ncons": 1338,
      "specific": 1339,
      "including": 1340,
      "strcmp": 1341,
      "unsigned": 1342,
      "],\"\"))": 1343,
      "Retrieve": 1344,
      "max_num_blocks": 1345,
      "elimination": 1346,
      "/*--------------------------------------------------------------------": 1347,
      "119": 1348,
      "1197": 1349,
      "35": 1350,
      "599": 1351,
      "529": 1352,
      "549": 1353,
      "583": 1354,
      "581": 1355,
      "629": 1356,
      "625": 1357,
      "661": 1358,
      "627": 1359,
      "75": 1360,
      "865": 1361,
      "863": 1362,
      "889": 1363,
      "861": 1364,
      "867": 1365,
      "869": 1366,
      "859": 1367,
      "885": 1368,
      "915": 1369,
      "913": 1370,
      "919": 1371,
      "965": 1372,
      "963": 1373,
      "989": 1374,
      "921": 1375,
      "967": 1376,
      "969": 1377,
      "971": 1378,
      "939": 1379,
      "917": 1380,
      "937": 1381,
      "973": 1382,
      "AN": 1383,
      "Con": 1384,
      "Calc": 1385,
      "D_MAX": 1386,
      "Gu": 1387,
      "Mis": 1388,
      "Num": 1389,
      "ON": 1390,
      "RAN": 1391,
      "Uni": 1392,
      "_li": 1393,
      "_threads": 1394,
      "ec": 1395,
      "ft": 1396,
      "i1": 1397,
      "jb": 1398,
      "kb": 1399,
      "mit": 1400,
      "psum": 1401,
      "pfile": 1402,
      "tribu": 1403,
      "write": 1404,
      "ster": 1405,
      "inter": 1406,
      "1615": 1407,
      "1613": 1408,
      "1619": 1409,
      "1665": 1410,
      "1649": 1411,
      "1621": 1412,
      "1667": 1413,
      "1669": 1414,
      "1671": 1415,
      "1623": 1416,
      "1639": 1417,
      "1617": 1418,
      "1673": 1419,
      "1675": 1420,
      "contribu": 1421,
      "left": 1422,
      "ome": 1423,
      "pred": 1424,
      "ict": 1425,
      "restr": 1426,
      "remo": 1427,
      "master": 1428,
      "seg": 1429,
      "1587": 1430,
      "1565": 1431,
      "1563": 1432,
      "1589": 1433,
      "1561": 1434,
      "1567": 1435,
      "1569": 1436,
      "1571": 1437,
      "1539": 1438,
      "1537": 1439,
      "1535": 1440,
      "lap": 1441,
      "gram": 1442,
      "1229": 1443,
      "1249": 1444,
      "1255": 1445,
      "1225": 1446,
      "1257": 1447,
      "1227": 1448,
      "1253": 1449,
      "1223": 1450,
      "1259": 1451,
      "1251": 1452,
      "1281": 1453,
      "1283": 1454,
      "1329": 1455,
      "1327": 1456,
      "1311": 1457,
      "1987": 1458,
      "1929": 1459,
      "1955": 1460,
      "1925": 1461,
      "1957": 1462,
      "1961": 1463,
      "1927": 1464,
      "1953": 1465,
      "1983": 1466,
      "1959": 1467,
      "1981": 1468,
      "1951": 1469,
      "1985": 1470,
      "1231": 1471,
      "1233": 1472,
      "991": 1473,
      "993": 1474,
      "997": 1475,
      "thread_li": 1476,
      "2011": 1477,
      "651": 1478,
      "653": 1479,
      "655": 1480,
      "657": 1481,
      "659": 1482,
      "551": 1483,
      "553": 1484,
      "555": 1485,
      "557": 1486,
      "program": 1487,
      "based": 1488,
      "631": 1489,
      "633": 1490,
      "635": 1491,
      "2003": 1492,
      "2005": 1493,
      "2007": 1494,
      "2009": 1495,
      "573": 1496,
      "575": 1497,
      "577": 1498,
      "579": 1499,
      "891": 1500,
      "893": 1501,
      "895": 1502,
      "601": 1503,
      "603": 1504,
      "605": 1505,
      "607": 1506,
      "609": 1507,
      "1275": 1508,
      "1277": 1509,
      "1279": 1510,
      "1301": 1511,
      "1303": 1512,
      "1305": 1513,
      "1307": 1514,
      "1309": 1515,
      "1901": 1516,
      "1903": 1517,
      "1905": 1518,
      "1907": 1519,
      "1909": 1520,
      "180": 1521,
      "1899": 1522,
      "1883": 1523,
      "1881": 1524,
      "1873": 1525,
      "1875": 1526,
      "1877": 1527,
      "1879": 1528,
      "941": 1529,
      "943": 1530,
      "945": 1531,
      "947": 1532,
      "1641": 1533,
      "1643": 1534,
      "1645": 1535,
      "1647": 1536,
      "1591": 1537,
      "1593": 1538,
      "1595": 1539,
      "1597": 1540,
      "1201": 1541,
      "1203": 1542,
      "1205": 1543,
      "1207": 1544,
      "1331": 1545,
      "1333": 1546,
      "1335": 1547,
      "1337": 1548,
      "races": 1549,
      "1541": 1550,
      "1543": 1551,
      "1545": 1552,
      "1931": 1553,
      "1933": 1554,
      "1935": 1555,
      "1977": 1556,
      "1979": 1557,
      "ulation": 1558,
      "calculation": 1559,
      "newSxx": 1560,
      "newSyy": 1561,
      "generate": 1562,
      "consumed": 1563,
      "547": 1564,
      "produced": 1565,
      "Diag": 1566,
      "1199": 1567,
      "Calculate": 1568,
      "Number": 1569,
      "RAND_MAX": 1570,
      "Univ": 1571,
      "contributed": 1572,
      "restrict": 1573,
      "thread_limit": 1574,
      "149": 1575,
      "24": 1576,
      "527": 1577,
      "523": 1578,
      "<<": 1579,
      "Al": 1580,
      "Abor": 1581,
      "Bool": 1582,
      "Chi": 1583,
      "GA": 1584,
      "Get": 1585,
      "Si": 1586,
      "TT": 1587,
      "Task": 1588,
      "]@": 1589,
      "_w": 1590,
      "_task": 1591,
      "_2d": 1592,
      "_imper": 1593,
      "_Bool": 1594,
      "aj": 1595,
      "cla": 1596,
      "col": 1597,
      "gg": 1598,
      "j2": 1599,
      "k2": 1600,
      "ling": 1601,
      "oduc": 1602,
      "py": 1603,
      "qq": 1604,
      "rd": 1605,
      "sz": 1606,
      "sert": 1607,
      "tou": 1608,
      "ting": 1609,
      "ution": 1610,
      "ues": 1611,
      "x1": 1612,
      "x10": 1613,
      "xpy": 1614,
      "{}": 1615,
      "++,": 1616,
      "idth": 1617,
      "-((-": 1618,
      "?(((": 1619,
      "allocate": 1620,
      "val_w": 1621,
      "values": 1622,
      "exec": 1623,
      "Write_set": 1624,
      "missing": 1625,
      "variable": 1626,
      "().": 1627,
      "()==": 1628,
      "(((((((((": 1629,
      "thrd": 1630,
      "scheduling": 1631,
      "))?(((((((": 1632,
      "sumer": 1633,
      "ments": 1634,
      "even": 1635,
      "992": 1636,
      "outLen": 1637,
      "1048": 1638,
      "trigg": 1639,
      "num_sz": 1640,
      "coe": 1641,
      "duce": 1642,
      "produce": 1643,
      "]!=-": 1644,
      "tmp1": 1645,
      "matrix": 1646,
      "barrier_start": 1647,
      "barrier_init": 1648,
      "barrier_destroy": 1649,
      "barrier_stop": 1650,
      "_num_threads": 1651,
      "531": 1652,
      "matchMis": 1653,
      "...\\": 1654,
      "saxpy": 1655,
      "kernel_jacobi": 1656,
      "kernel_adi": 1657,
      "kernel_3mm": 1658,
      "incr_a": 1659,
      "gen_task": 1660,
      "nEle": 1661,
      "Produc": 1662,
      "interval_w": 1663,
      "remove": 1664,
      "segments": 1665,
      "lapse": 1666,
      "1492": 1667,
      "Aborting": 1668,
      "Child": 1669,
      "_2d_imper": 1670,
      "collapse": 1671,
      "touched": 1672,
      "x1024": 1673,
      "execution": 1674,
      "trigger": 1675,
      "matchMissmatchScore": 1676,
      "kernel_jacobi_2d_imper": 1677,
      "interval_width": 1678,
      ")][": 1679,
      "40": 1680,
      "70": 1681,
      "Ex": 1682,
      "Element": 1683,
      "Function": 1684,
      "Fib": 1685,
      "Gen": 1686,
      "NON": 1687,
      "PI": 1688,
      "Pur": 1689,
      "Rice": 1690,
      "Yiz": 1691,
      "]-=": 1692,
      "_c": 1693,
      "_p": 1694,
      "ax": 1695,
      "ack": 1696,
      "bound": 1697,
      "cil": 1698,
      "dv_": 1699,
      "fai": 1700,
      "ga": 1701,
      "gin": 1702,
      "gap": 1703,
      "im": 1704,
      "ip": 1705,
      "igin": 1706,
      "j1": 1707,
      "k1": 1708,
      "kip": 1709,
      "my": 1710,
      "m_n": 1711,
      "m_p": 1712,
      "nDiag": 1713,
      "per": 1714,
      "q_c": 1715,
      "r1": 1716,
      "skip": 1717,
      "tx": 1718,
      "tol": 1719,
      "tter": 1720,
      "vel": 1721,
      "we": 1722,
      "wo": 1723,
      "work": 1724,
      "insert": 1725,
      "sten": 1726,
      "sition": 1727,
      "dela": 1728,
      "ition": 1729,
      "origin": 1730,
      "aling": 1731,
      "pen": 1732,
      "letter": 1733,
      "level": 1734,
      "pre": 1735,
      "refin": 1736,
      "ould": 1737,
      "seq_c": 1738,
      "lures": 1739,
      "locate": 1740,
      "vol": 1741,
      "value": 1742,
      "tempfile": 1743,
      "omp_set": 1744,
      "omp_set_nest_lock": 1745,
      "should": 1746,
      "num_steps": 1747,
      "omp_unset_nest_lock": 1748,
      "due": 1749,
      "256": 1750,
      "omp_get_num_threads": 1751,
      "pairs": 1752,
      "copy": 1753,
      "signaling": 1754,
      "nElement": 1755,
      "pose": 1756,
      "position": 1757,
      "similarityScore": 1758,
      "omega": 1759,
      "Allocate": 1760,
      "clause": 1761,
      "NONE": 1762,
      "Purpose": 1763,
      "Yizi": 1764,
      "cil_": 1765,
      "dv_sum": 1766,
      "failures": 1767,
      "gapScore": 1768,
      "mytempfile": 1769,
      "m_nvol": 1770,
      "m_pdv_sum": 1771,
      "txt": 1772,
      "stencil_": 1773,
      "delay": 1774,
      "original": 1775,
      "refine": 1776,
      "seq_cst": 1777,
      "Allocates": 1778,
      "',": 1779,
      "'←": 1780,
      "'↑": 1781,
      "):": 1782,
      ")++;": 1783,
      ")=%": 1784,
      ")][-": 1785,
      "*));": 1786,
      "**)": 1787,
      "0f": 1788,
      "054": 1789,
      "400": 1790,
      "56": 1791,
      "62": 1792,
      "66": 1793,
      "923": 1794,
      ":%": 1795,
      ">-": 1796,
      "?-((-": 1797,
      "AG": 1798,
      "AL": 1799,
      "ATT": 1800,
      "BU": 1801,
      "CTT": 1802,
      "DE": 1803,
      "DI": 1804,
      "FT": 1805,
      "Fi": 1806,
      "HS": 1807,
      "Hel": 1808,
      "M_": 1809,
      "Mat": 1810,
      "Pres": 1811,
      "RHS": 1812,
      "Ste": 1813,
      "Size": 1814,
      "Sum": 1815,
      "TH": 1816,
      "Two": 1817,
      "UP": 1818,
      "Wu": 1819,
      "Wen": 1820,
      "]<=": 1821,
      "]==": 1822,
      "]};": 1823,
      "_from": 1824,
      "_input": 1825,
      "ac": 1826,
      "af": 1827,
      "ame": 1828,
      "ach": 1829,
      "ant": 1830,
      "access": 1831,
      "ail": 1832,
      "bal": 1833,
      "back": 1834,
      "cti": 1835,
      "calloc": 1836,
      "dBug": 1837,
      "dri": 1838,
      "ege": 1839,
      "flush": 1840,
      "fail": 1841,
      "ire": 1842,
      "line": 1843,
      "mits": 1844,
      "nsi": 1845,
      "ning": 1846,
      "name": 1847,
      "oop": 1848,
      "qu": 1849,
      "ros": 1850,
      "sin": 1851,
      "srand": 1852,
      "some": 1853,
      "tra": 1854,
      "there": 1855,
      "war": 1856,
      "ware": 1857,
      "x1000": 1858,
      "{&": 1859,
      "{};": 1860,
      "stor": 1861,
      "sted": 1862,
      "stprivate": 1863,
      "consumer": 1864,
      "zeros": 1865,
      "decess": 1866,
      "deallocate": 1867,
      "allow": 1868,
      "ardBug": 1869,
      "dataset": 1870,
      "mensi": 1871,
      "age": 1872,
      "rela": 1873,
      "reas": 1874,
      "seed": 1875,
      "omp_nest_lock": 1876,
      "bet": 1877,
      "load": 1878,
      "lobal": 1879,
      "geable": 1880,
      "now": 1881,
      "tected": 1882,
      "?(((((": 1883,
      "?((((((": 1884,
      "laware": 1885,
      "lastprivate": 1886,
      "texinout": 1887,
      "phen": 1888,
      "===": 1889,
      "dimensi": 1890,
      "Real": 1891,
      "maxim": 1892,
      "exit": 1893,
      "Read_set": 1894,
      "missmatchScore": 1895,
      "setup": 1896,
      "((((((((": 1897,
      "1001": 1898,
      "fines": 1899,
      "taskloop": 1900,
      "lld": 1901,
      "checking": 1902,
      "10x1024": 1903,
      "rstDiag": 1904,
      "num_refine": 1905,
      "))))?(((": 1906,
      "2048": 1907,
      "20x1000": 1908,
      "condition": 1909,
      "fopen": 1910,
      "497": 1911,
      "mergeable": 1912,
      "omp_init_nest_lock": 1913,
      "omp_destroy_nest_lock": 1914,
      "hao": 1915,
      "Note": 1916,
      "...": 1917,
      "same": 1918,
      "Delaware": 1919,
      "Defines": 1920,
      "LEFT": 1921,
      "sumed": 1922,
      "calcFi": 1923,
      "loops": 1924,
      "directi": 1925,
      "Because": 1926,
      "mutexinout": 1927,
      "within": 1928,
      "erates": 1929,
      "producer": 1930,
      "Consumer": 1931,
      "Consumed": 1932,
      "GuardBug": 1933,
      "ONAL": 1934,
      "Calculates": 1935,
      "GAATT": 1936,
      "GACTT": 1937,
      "Siege": 1938,
      "variables": 1939,
      "coef": 1940,
      "coeff": 1941,
      "Producer": 1942,
      "Produced": 1943,
      "Expected": 1944,
      "Generates": 1945,
      "pers": 1946,
      "predecess": 1947,
      "copyin": 1948,
      "stencil_calc": 1949,
      "'←'": 1950,
      "'↑'": 1951,
      "0543": 1952,
      "4000": 1953,
      "AGONAL": 1954,
      "BUG": 1955,
      "DEBUG": 1956,
      "DIAGONAL": 1957,
      "Helpers": 1958,
      "M_PI": 1959,
      "Matrix": 1960,
      "Present": 1961,
      "Stephen": 1962,
      "Wenhao": 1963,
      "_from_input": 1964,
      "acqu": 1965,
      "after": 1966,
      "ants": 1967,
      "backtra": 1968,
      "driver": 1969,
      "fails": 1970,
      "linear": 1971,
      "sink": 1972,
      "warning": 1973,
      "storage": 1974,
      "relax": 1975,
      "reasing": 1976,
      "omp_nest_lock_t": 1977,
      "load_from_input": 1978,
      "maximum": 1979,
      "10x1024x1024": 1980,
      "rstDiagElement": 1981,
      "calcFirstDiagElement": 1982,
      "directive": 1983,
      "mutexinoutset": 1984,
      "GAATTCA": 1985,
      "Siegel": 1986,
      "predecessor": 1987,
      "acquire": 1988,
      "backtrack": 1989,
      "\"%": 1990,
      "\"<<": 1991,
      "())": 1992,
      ")-": 1993,
      "+\");": 1994,
      "/(": 1995,
      "/((": 1996,
      "01": 1997,
      "05": 1998,
      "26": 1999,
      "28": 2000,
      "30": 2001,
      "34": 2002,
      "96": 2003,
      "97": 2004,
      ";}": 2005,
      "An": 2006,
      "ATH": 2007,
      "Aach": 2008,
      "Co": 2009,
      "Cla": 2010,
      "Cent": 2011,
      "Cop": 2012,
      "Det": 2013,
      "FI": 2014,
      "Global": 2015,
      "Iter": 2016,
      "Jo": 2017,
      "Loop": 2018,
      "PATH": 2019,
      "RW": 2020,
      "Rand": 2021,
      "Str": 2022,
      "Ti": 2023,
      "Tot": 2024,
      "Test": 2025,
      "Up": 2026,
      "We": 2027,
      "With": 2028,
      "[*": 2029,
      "[]": 2030,
      "]\\": 2031,
      "_initial": 2032,
      "_dynamic": 2033,
      "_list": 2034,
      "_device": 2035,
      "ab": 2036,
      "acc": 2037,
      "aut": 2038,
      "ausing": 2039,
      "bl": 2040,
      "bs": 2041,
      "bt": 2042,
      "bus": 2043,
      "ci": 2044,
      "clo": 2045,
      "cout": 2046,
      "cassert": 2047,
      "carri": 2048,
      "causing": 2049,
      "ead": 2050,
      "fclo": 2051,
      "gr": 2052,
      "gma": 2053,
      "gni": 2054,
      "gone": 2055,
      "global": 2056,
      "hic": 2057,
      "io": 2058,
      "ient": 2059,
      "kes": 2060,
      "mn": 2061,
      "mist": 2062,
      "mset": 2063,
      "mul": 2064,
      "milarity": 2065,
      "nde": 2066,
      "nce": 2067,
      "none": 2068,
      "nMatrix": 2069,
      "ove": 2070,
      "obt": 2071,
      "oci": 2072,
      "pu": 2073,
      "pat": 2074,
      "ple": 2075,
      "ping": 2076,
      "ppen": 2077,
      "qr": 2078,
      "que": 2079,
      "ral": 2080,
      "rong": 2081,
      "sb": 2082,
      "sf": 2083,
      "sm": 2084,
      "sw": 2085,
      "ssi": 2086,
      "sor": 2087,
      "sug": 2088,
      "sync": 2089,
      "scor": 2090,
      "score": 2091,
      "smatch": 2092,
      "sqr": 2093,
      "tw": 2094,
      "two": 2095,
      "ure": 2096,
      "ved": 2097,
      "ving": 2098,
      "wtime": 2099,
      "whic": 2100,
      "wrong": 2101,
      "inst": 2102,
      "stre": 2103,
      "stable": 2104,
      "stack": 2105,
      "stants": 2106,
      "into": 2107,
      "atic": 2108,
      "onacc": 2109,
      "constants": 2110,
      "sidu": 2111,
      "zed": 2112,
      "dele": 2113,
      "deri": 2114,
      "ores": 2115,
      "orization": 2116,
      "erve": 2117,
      "ermine": 2118,
      "alread": 2119,
      "00L": 2120,
      "dates": 2121,
      "tiple": 2122,
      "omatic": 2123,
      "pres": 2124,
      "mesh": 2125,
      "memset": 2126,
      "icient": 2127,
      "ensu": 2128,
      "reco": 2129,
      "reque": 2130,
      "makes": 2131,
      "oup": 2132,
      "because": 2133,
      "endl": 2134,
      "endif": 2135,
      "gested": 2136,
      "lution": 2137,
      "lumn": 2138,
      "ify": 2139,
      "ifdef": 2140,
      "1500": 2141,
      "location": 2142,
      "user": 2143,
      "tection": 2144,
      "00000000": 2145,
      "labs": 2146,
      "unable": 2147,
      "][%": 2148,
      "indexing": 2149,
      "verify": 2150,
      "space": 2151,
      "valid": 2152,
      "new_pro": 2153,
      "returns": 2154,
      "answ": 2155,
      "mined": 2156,
      "dir": 2157,
      "])/": 2158,
      "Reference": 2159,
      "Residu": 2160,
      "is_initial": 2161,
      "\",\"": 2162,
      "max_threads": 2163,
      "initialTi": 2164,
      "simulate": 2165,
      "ctorization": 2166,
      "structure": 2167,
      "missmatch": 2168,
      "decreasing": 2169,
      "()%": 2170,
      "()\\": 2171,
      "addition": 2172,
      "omp_is_initial": 2173,
      "stdint": 2174,
      "ings": 2175,
      "associ": 2176,
      "taskgr": 2177,
      "vectorization": 2178,
      "like": 2179,
      "overlap": 2180,
      "tern": 2181,
      "determined": 2182,
      "depende": 2183,
      "but": 2184,
      "ones": 2185,
      "host": 2186,
      "2015": 2187,
      "2040": 2188,
      "_tol": 2189,
      "ake": 2190,
      "Lines": 2191,
      "results": 2192,
      "ations": 2193,
      "uted": 2194,
      "proper": 2195,
      "protected": 2196,
      "protection": 2197,
      "2560": 2198,
      "happen": 2199,
      "error_tol": 2200,
      "Insert": 2201,
      "oper": 2202,
      "otze": 2203,
      "**));": 2204,
      "***)": 2205,
      "****": 2206,
      "***));": 2207,
      "****)": 2208,
      "832040": 2209,
      "omp_get_wtime": 2210,
      "omp_get_max_threads": 2211,
      "]*(": 2212,
      "]*=": 2213,
      "_nested": 2214,
      "517": 2215,
      "51200L": 2216,
      "Detected": 2217,
      "increasing": 2218,
      "compared": 2219,
      "calcElement": 2220,
      "rectly": 2221,
      "strings": 2222,
      "200000000": 2223,
      "Stores": 2224,
      "pointer": 2225,
      "solution": 2226,
      "phabet": 2227,
      "add_sor": 2228,
      "Variables": 2229,
      "Directly": 2230,
      "Proper": 2231,
      "Protze": 2232,
      "move": 2233,
      "ted_list": 2234,
      "alphabet": 2235,
      "Constants": 2236,
      "Missing": 2237,
      "ecuted": 2238,
      "removing": 2239,
      "<<\"": 2240,
      "Alphabet": 2241,
      "Gets": 2242,
      "Sigma": 2243,
      "Similarity": 2244,
      "class": 2245,
      "matrixes": 2246,
      "4096": 2247,
      "Executed": 2248,
      "Fibonacc": 2249,
      "predetermined": 2250,
      "omp_set_num_threads": 2251,
      "omp_set_dynamic": 2252,
      "omp_set_nested": 2253,
      "copyprivate": 2254,
      "stencil_in": 2255,
      "achim": 2256,
      "namespace": 2257,
      "oops": 2258,
      "allows": 2259,
      "dimension": 2260,
      "dimensional": 2261,
      "coefficient": 2262,
      "())/((": 2263,
      "Any": 2264,
      "Aachen": 2265,
      "Column": 2266,
      "Classi": 2267,
      "Central": 2268,
      "Copy": 2269,
      "Determine": 2270,
      "FILE": 2271,
      "Iterations": 2272,
      "Joachim": 2273,
      "RWTH": 2274,
      "Random": 2275,
      "Strings": 2276,
      "Total": 2277,
      "Updates": 2278,
      "Without": 2279,
      "above": 2280,
      "automatic": 2281,
      "blic": 2282,
      "busy": 2283,
      "carried": 2284,
      "fclose": 2285,
      "gnized": 2286,
      "iostre": 2287,
      "mistake": 2288,
      "multiple": 2289,
      "obtain": 2290,
      "public": 2291,
      "pattern": 2292,
      "suggested": 2293,
      "scores": 2294,
      "sqrt": 2295,
      "twice": 2296,
      "which": 2297,
      "instead": 2298,
      "delete": 2299,
      "derived": 2300,
      "already": 2301,
      "preserve": 2302,
      "ensure": 2303,
      "recognized": 2304,
      "requested": 2305,
      "0000000001": 2306,
      "new_proc": 2307,
      "answer": 2308,
      "References": 2309,
      "Residual": 2310,
      "initialTime": 2311,
      "omp_is_initial_device": 2312,
      "associate": 2313,
      "taskgroup": 2314,
      "overlapping": 2315,
      "dependence": 2316,
      "properly": 2317,
      "happens": 2318,
      "Inserts": 2319,
      "pointers": 2320,
      "add_sorted_list": 2321,
      "Fibonacci": 2322,
      "coefficients": 2323,
      "Columns": 2324,
      "Classic": 2325,
      "iostream": 2326
    },
    "merges": [
      "i n",
      "s t",
      "in t",
      "1 6",
      "a t",
      "o n",
      "( (",
      ") ;",
      "c on",
      "con st",
      "s i",
      "z e",
      "w l",
      "si ze",
      "d e",
      "i t",
      "o r",
      ") )",
      "e r",
      "a l",
      "a r",
      "0 0",
      "d at",
      "p e",
      "i st",
      "l e",
      "t y",
      "ty pe",
      "f or",
      "dat a",
      "+ +",
      "t i",
      "o m",
      "p r",
      "wl 1",
      "_ type",
      "data _type",
      "m e",
      "ti me",
      "i c",
      "++ )",
      "a g",
      "e n",
      "st at",
      "r e",
      "d ist",
      "wl 2",
      "m a",
      "n l",
      "o u",
      "s e",
      "c 2",
      "it er",
      "n j",
      "] ;",
      "om p",
      "c 4",
      "/ /",
      "b e",
      "o f",
      "l o",
      "en d",
      "- (",
      "n k",
      "( &",
      "g e",
      "l u",
      "c lu",
      "i d",
      "clu de",
      "i f",
      "1 5",
      "r c",
      "n o",
      "c 3",
      "e w",
      "e d",
      "s rc",
      "- ((",
      "-(( -(",
      ") );",
      "lo c",
      "b le",
      "d ou",
      "dou ble",
      "pr ag",
      "prag ma",
      "c 1",
      "n m",
      "wl1 size",
      "in clude",
      "u s",
      "se c",
      "stat us",
      "t e",
      "g o",
      "v _",
      "t v_",
      "no de",
      "00 00",
      "node s",
      "? ((",
      "wl2 size",
      "n ew",
      "ar t",
      "l a",
      "st art",
      "al loc",
      "in it",
      "u n",
      "size of",
      "m alloc",
      "r a",
      "be l",
      "la bel",
      "p ar",
      "stat ic",
      "f re",
      "fre e",
      "< =",
      "] [",
      "a in",
      "c h",
      "ag ain",
      "go again",
      "n i",
      "in de",
      "inde x",
      ")) )",
      "n index",
      "id x",
      "v er",
      "r it",
      "d st",
      "n t",
      "s p",
      "u r",
      "v o",
      "vo id",
      "nl ist",
      "te x",
      "ver tex",
      "p h",
      "a d",
      "= =",
      "g ra",
      "pr i",
      "? -((-(",
      "C L",
      "E CL",
      "gra ph",
      "ECL graph",
      "ge t",
      "ed ge",
      "be g",
      "at om",
      "atom ic",
      "e i",
      "(( (",
      "v al",
      "new _",
      "it y",
      "or ity",
      "pri ority",
      "L L",
      "N U",
      "NU LL",
      "a y",
      "_ vertex",
      "d ay",
      "u sec",
      "time of",
      "tv_ sec",
      "tv_ usec",
      "get timeof",
      "gettimeof day",
      "re t",
      "] ,",
      "ur n",
      "ret urn",
      "al le",
      "par alle",
      "paralle l",
      "a n",
      "g h",
      "1 0000",
      "pr int",
      "r un",
      "run time",
      "ei gh",
      "10000 00",
      "m in",
      "include d",
      "h i",
      "++ ;",
      "d i",
      "print f",
      "! =",
      "iter at",
      "( \"",
      "] )",
      "_ n",
      "r u",
      "R e",
      "i s",
      "\" ,",
      "ma x",
      "c rit",
      "ic al",
      "crit ical",
      "s s",
      "u p",
      "w hi",
      "whi le",
      "h er",
      "ou nt",
      "_ new",
      "i al",
      "en t",
      "par ent",
      "init ial",
      "new_ dist",
      "_vertex _",
      "de f",
      "c e",
      "i ze",
      "edge s",
      "c ount",
      "her e",
      "initial ize",
      "u g",
      "B ug",
      "( *",
      "- -",
      "m p",
      "si m",
      "e x",
      "sim d",
      ")) ))",
      "Re ad",
      "min v",
      "ew eigh",
      "eweigh t",
      "d o",
      "atomic Read",
      "c t",
      "e p",
      "re p",
      "1 2",
      "te mp",
      "* )",
      "rit e",
      "W rite",
      "wl size",
      "i on",
      "atomic Write",
      "critical _",
      "ru ct",
      "ra y",
      "type def",
      "st ruct",
      "ar ray",
      "in di",
      "time val",
      "loc k",
      "go _",
      "indi go_",
      "max val",
      "up dat",
      "& &",
      "] );",
      "an d",
      "iterat ion",
      "a ce",
      "iteration s",
      "R ace",
      "Race Bug",
      "m is",
      "lo st",
      "c c",
      "b f",
      "ss sp",
      "bf s",
      "ex clude",
      "o l",
      "v ar",
      "ar ep",
      "ed x",
      "( -",
      "? -(",
      "a m",
      "y n",
      "s u",
      "de c",
      "C P",
      "CP U",
      "se t",
      "? (-",
      "_ edge",
      "b rep",
      "?-( -",
      "A X",
      "M AX",
      "( )",
      "i de",
      "dec ide",
      "decide d",
      "c nt",
      "exclude d",
      "a s",
      "new_ label",
      "m or",
      "(( ((",
      "un decided",
      "le n",
      "ma in",
      "t h",
      "status _n",
      "ch an",
      "_vertex_ omp",
      "chan ge",
      "ti l",
      "un til",
      "iterat e",
      "mor e",
      "change s",
      ") ]",
      "b or",
      "status _new",
      "ad d",
      "n eigh",
      "neigh bor",
      "> =",
      "A P",
      "S W",
      "SW AP",
      "o ol",
      "ch _",
      "ch ed",
      "updat ed",
      "b ool",
      "s ched",
      "sched u",
      "schedu le",
      "d yn",
      "am ic",
      "dyn amic",
      "ar g",
      "e t",
      "st di",
      "stdi o",
      "e l",
      "f al",
      "count er",
      "fal se",
      "1 00",
      "omp _",
      "n d",
      ")) ?((",
      "_vertex_ data",
      "-- --",
      "- >",
      "_ add",
      "f et",
      "and _add",
      "ch_ and_add",
      "fet ch_and_add",
      "r i",
      "] =",
      "f in",
      "t ru",
      "tru e",
      "_edge _",
      "array s",
      "() {",
      "fin d",
      "| |",
      "el se",
      "re ad",
      "dist _new",
      "dist _n",
      "r om",
      "++) {",
      "c ur",
      "up d",
      "counter var",
      "cur r",
      "12 8",
      "critical_ max",
      "_ lock",
      "st d",
      "or k",
      "))?(( (",
      "l ist",
      "ork list",
      "th e",
      "in g",
      "1 3",
      "as k",
      "a ss",
      "t ask",
      "in e",
      "( );",
      "5 00",
      "] ])",
      "m st",
      "w ei",
      "w orklist",
      "c 0",
      "c k",
      "critical_ min",
      "I N",
      "al l",
      "* /",
      "/ *",
      "1 9",
      "f i",
      "at e",
      "su m",
      "updat e",
      "m rep",
      "Re p",
      "find Rep",
      "_ MAX",
      "u m",
      "_edge_ omp",
      "T _MAX",
      "IN T_MAX",
      "v ate",
      "pri vate",
      "v e",
      "8 7",
      "l l",
      "label _n",
      "arg c",
      "arg v",
      "ti on",
      "label _new",
      "def ine",
      "me nt",
      "ou nd",
      "f rom",
      "l i",
      "f ound",
      "n ex",
      "---- ----",
      "mst _",
      "nex t",
      "(( (((",
      "+ =",
      "c 8",
      "set _lock",
      "t o",
      "p ass",
      "ti d",
      "b lock",
      "= %",
      "s ou",
      "le ment",
      "rc e",
      "sou rce",
      "st ep",
      "dist an",
      "step s",
      "distan ce",
      "o ver",
      "su ch",
      "n um",
      "s h",
      "indigo_ cc",
      "indigo_ sssp",
      "indigo_ bfs",
      "CPU cc",
      "CPU sssp",
      "CPU bfs",
      "e lement",
      ")) ));",
      "c 5",
      "t ar",
      "te am",
      "12 3",
      "tar get",
      "team s",
      "e ck",
      "ma p",
      "ch eck",
      "yn c",
      "std li",
      "stdli b",
      "M i",
      "S ync",
      "t er",
      "x Sync",
      "Mi xSync",
      "MixSync Bug",
      "W L",
      "e v",
      "y b",
      "8 87",
      "9 9",
      "t steps",
      "ou t",
      "ch ar",
      "( %",
      "C A",
      "l t",
      "element s",
      "te st",
      "pr ev",
      "end 1",
      "critical_ CA",
      "cc _vertex_data",
      "sssp _vertex_data",
      "critical_CA S",
      ") \\",
      "h as",
      "de ter",
      "min e",
      "% %",
      "1 f",
      "7 123",
      "M P",
      "O MP",
      "indigo_ mis",
      "13 887",
      "(% .",
      "has h",
      "deter mine",
      "%% )\\",
      "7123 13887",
      "OMP mis",
      "de pe",
      "_edge_ data",
      "b u",
      "depe nd",
      "p ol",
      "ic e",
      "ri bu",
      "yb en",
      "pol yben",
      "c 15",
      "er t",
      "1 0",
      "v ice",
      "de vice",
      "ar ed",
      "[ ])",
      "dist ribu",
      "sh ared",
      "distribu te",
      "\" );",
      "] ]",
      "a it",
      "t of",
      "w ait",
      "end 2",
      "start 1",
      "start 2",
      "indigo_bfs _vertex_omp",
      "CPUbfs _vertex",
      "tof rom",
      ": :",
      "ass ert",
      "t ri",
      "th read",
      "indigo_cc _vertex_omp",
      "indigo_sssp _vertex_omp",
      "CPUcc _vertex",
      "CPUsssp _vertex",
      "r st",
      "on e",
      ")) )))",
      ")))) );",
      "num _",
      "] ))",
      ")))) ?((",
      "bfs _vertex_data",
      "h o",
      "ar ri",
      "fi rst",
      "2 0",
      "L i",
      "_ count",
      "w ho",
      "lock Bug",
      "]= %",
      "fi ll",
      "ve lockBug",
      "arri er",
      "Li velockBug",
      "c 9",
      "3 2",
      "con d",
      "omp_ un",
      "2 9",
      "_ t",
      "a k",
      "t r",
      "st r",
      ") [",
      "C ount",
      "] ))))",
      "b re",
      "g size",
      "g _count",
      "j o",
      "n on",
      "t c",
      "w n",
      "se cond",
      "sec tion",
      "beg 1",
      "beg 2",
      "gh er",
      "hi gher",
      "neighbor s",
      "mst_ first",
      "mst_ second",
      "indigo_mis _vertex_omp",
      "OMPmis _vertex",
      "tri Count",
      "who se",
      "tr y",
      "bre ak",
      "jo in",
      "triCount ing",
      "6 5",
      "omp_ set_lock",
      "omp_un set_lock",
      "A d",
      "c tion",
      "on g",
      "critical Ad",
      "criticalAd d",
      "l ong",
      ") {",
      "b arrier",
      "_vertex_ pass",
      "mis _vertex_pass",
      "100 0",
      "L ine",
      "(\" %",
      "task wait",
      "B la",
      "a se",
      "c 7",
      "e s",
      "i ll",
      "re su",
      "// +",
      "nk Line",
      "c1 0",
      "-------- --------",
      "polyben ch_",
      "Bla nkLine",
      "resu lt",
      "5 0",
      "p a",
      "at ion",
      "c o",
      "d u",
      "s ing",
      "x a",
      "u t",
      "4 8",
      "f o",
      "ar e",
      "-- ;",
      "))?(( (((",
      "4 9",
      "e a",
      "de r",
      "su block",
      "add lock",
      "5 5",
      "] ],",
      "a u",
      "pr o",
      "fo o",
      "[ -",
      "] !=",
      "sing le",
      "b ase",
      "l f",
      "l ck",
      "o y",
      "r or",
      "t mp",
      "st ill",
      "de str",
      "destr oy",
      "6 4",
      "6 3",
      "e it",
      "l 0",
      "l 1",
      "l y",
      "m er",
      "eit her",
      "2 5",
      "2 00",
      "_ block",
      "hi s",
      "(((( (((",
      "5 7",
      "8 9",
      "ti mer",
      "lo w",
      "10000 0",
      "(((( ((",
      "omp_ init",
      "omp_ destroy",
      "m at",
      ")) );",
      "?(( ((",
      "thread s",
      "m ar",
      "p ut",
      "][ -",
      "sum 1",
      "low er",
      "omp_init _lock",
      "omp_destroy _lock",
      "mar k",
      "] +",
      "h a",
      "u e",
      "in out",
      "ce ss",
      "6 0",
      "M IN",
      "c or",
      "f printf",
      "o i",
      "u 1",
      "at oi",
      "it s",
      "er ror",
      "12 7",
      "barrier _",
      ", (",
      "6 1",
      "I n",
      "_ size",
      "c cess",
      "h read",
      "i l",
      "t his",
      "st der",
      "13 0",
      "19 0",
      "ea ch",
      "_block _size",
      "stder r",
      "2 1",
      "2 7",
      "_ data",
      "_ array",
      "k er",
      "n el",
      "o p",
      "o t",
      "o wn",
      "u nk",
      "w as",
      ")) ,(",
      "++ ]",
      "se lf",
      "be st",
      "no wn",
      "alloc _data",
      "]) (",
      "_n um",
      "initial ly",
      "(* )[",
      "indigo_ mst",
      "indigo_ tc",
      "cc _edge_data",
      "sssp _edge_data",
      "CPU mst",
      "CPU tc",
      "std bool",
      "ck ag",
      "indigo_cc _edge_omp",
      "indigo_sssp _edge_omp",
      "CPUcc _edge",
      "CPUsssp _edge",
      "polyben ch",
      "polybench_ alloc_data",
      "pa ckag",
      "ha ve",
      "ker nel",
      "unk nown",
      "A ccess",
      "I ss",
      "M e",
      "i si",
      "v isi",
      "ct ed",
      "mor y",
      "num_ threads",
      "Iss ue",
      "Me mory",
      "visi ble",
      "( -(",
      ") ++]",
      "? (-(",
      "[ (*",
      "f l",
      "n or",
      "n either",
      "re main",
      "lock _t",
      "?-( -(",
      "th at",
      "omp_ lock_t",
      "sum 0",
      "indigo_bfs _edge_omp",
      "CPUbfs _edge",
      "indigo_mis _edge_omp",
      "OMPmis _edge",
      "au lt",
      "ot her",
      "fl ag",
      "remain ing",
      "( +",
      "pe cted",
      "re du",
      "(+ :",
      "redu ction",
      "* *",
      "1 8",
      "1 87",
      "5 3",
      "6 7",
      "6 9",
      "9 4",
      "w on",
      "16 4",
      "15 9",
      "12 0",
      "bfs _edge_data",
      "13 3",
      "xa 1",
      "xa 2",
      ", \"",
      "b y",
      "x x",
      "y y",
      "ex pected",
      "omp_ get",
      "7 1",
      "I Z",
      "M S",
      "[ %",
      "c 6",
      "c om",
      "d one",
      "f f",
      "l 2",
      "m on",
      "u 2",
      "in WL",
      "lu sh",
      ")))) ))",
      ")))) )))",
      "dec l",
      "fi b",
      "num_ teams",
      "section s",
      "---------------- ----------------",
      "polybench_ timer",
      "packag es",
      "IZ E",
      "MS IZE",
      "com mon",
      "polybench_timer _",
      "- =",
      "T hread",
      "] +=",
      "i r",
      "ra ce",
      "pa ir",
      "1 1",
      "1 st",
      "2 3",
      "2 nd",
      "8 3",
      "M u",
      "U n",
      "] )))",
      "b p",
      "f 1",
      "st dou",
      "un ction",
      "critical Read",
      "update Un",
      "49 8",
      "cor e",
      "omp_get _",
      "ff lush",
      "stdou t",
      "updateUn decided",
      "3 9",
      "5 9",
      "8 1",
      "a p",
      "a ble",
      "f lo",
      "al c",
      "// #",
      "15 4",
      "def ault",
      "19 3",
      "19 7",
      "co p",
      "flo at",
      "1 4",
      "5 21",
      "N o",
      "S et",
      "S core",
      "] ++;",
      "e st",
      "in put",
      "int 64",
      "re s",
      "index Set",
      "block s",
      "out put",
      "thread _num",
      "mat ch",
      "omp_get_ thread_num",
      "int64 _t",
      ") /",
      "4 99",
      "L en",
      "] *",
      "f unction",
      "u se",
      "ch il",
      "_n est",
      ")))) ?",
      "128 5",
      "99 9",
      "chil d",
      "( !",
      ". .",
      "5 1",
      "5 12",
      "F rom",
      "W orklist",
      "b er",
      "c all",
      "c ap",
      "h ea",
      "i 2",
      "s a",
      "s cop",
      "u l",
      "it ial",
      "re set",
      "init _array",
      "vertex es",
      "print _array",
      "update From",
      "li ve",
      "co de",
      "In clude",
      "In itial",
      "indigo_mst _vertex_omp",
      "indigo_mst _edge_omp",
      "indigo_tc _vertex_omp",
      "indigo_tc _edge_omp",
      "CPUtc _vertex",
      "CPUtc _edge",
      "kernel _",
      ",\" \\",
      "decl are",
      "_nest _lock",
      "hea der",
      "updateFrom Worklist",
      "D e",
      "L E",
      "d x",
      "d y",
      "i able",
      "k e",
      "v s",
      "in c",
      "ist d",
      "un istd",
      "ra nd",
      "su me",
      "20 13",
      "du c",
      "mat h",
      "Initial ize",
      "1 7",
      "2 lf",
      "3 7",
      "7 3",
      "8 5",
      "D at",
      "c omp",
      "c alc",
      "i z",
      "m yb",
      "n pro",
      "r _",
      "} ;",
      "st op",
      "); ;",
      "de s",
      "de re",
      "or dere",
      "re ct",
      "lo op",
      "new S",
      "di ag",
      "di re",
      "ol d",
      "num No",
      "thread private",
      "str ing",
      "barrier_ wait",
      "flag _t",
      "Mu lt",
      "ke ep",
      "inc r_",
      "Dat a",
      "myb arrier",
      "npro d",
      "ordere d",
      "numNo des",
      "2 0000",
      "] .",
      "g n",
      "g en",
      "t p",
      "u old",
      "x _block_size",
      "y _block_size",
      "in Len",
      "con sume",
      "si gn",
      "]= ((",
      "sum 2",
      "ut ation",
      "200 0",
      "cor rect",
      "Thread s",
      "comp utation",
      "' ;",
      ") *",
      "B e",
      "D one",
      "E r",
      "E nd",
      "M Y",
      "S t",
      "a co",
      "b i",
      "e ss",
      "f 0",
      "f er",
      "i b",
      "j aco",
      "m u",
      "n steps",
      "n ess",
      "o s",
      "s j",
      "u ment",
      "w ill",
      "const ruct",
      "it h",
      "en ce",
      "re al",
      "loc al",
      "nt hread",
      "ph ase",
      "critical Write",
      "arg ument",
      "fi le",
      "num Threads",
      "))))?(( ((",
      "au x",
      "match Score",
      "LE N",
      "dire ction",
      "correct ness",
      "Er ror",
      "MY LEN",
      "fer ence",
      "jaco bi",
      ") .",
      ". \\",
      "5 4",
      "V ar",
      "a i",
      "c an",
      "f ault",
      "g th",
      "l d",
      "n E",
      "p o",
      "s o",
      "w ith",
      "z _block_size",
      "on al",
      "er ate",
      "ar ity",
      "re ference",
      "no t",
      "][ (-",
      "ph a",
      "var s",
      "len gth",
      "add _",
      "num ber",
      "99 5",
      "num_ vars",
      "pro duc",
      "il arity",
      "use d",
      "iz ation",
      "St art",
      "real 8",
      "Var iable",
      "\" \"",
      "- %",
      "2 d",
      "3 m",
      "4 2",
      "4 2000",
      "5 25",
      "9 11",
      "A r",
      "A ll",
      "C E",
      "C an",
      "D i",
      "D CE",
      "M ain",
      "P r",
      "P re",
      "P os",
      "R un",
      "S to",
      "T h",
      "T his",
      "_ set",
      "b en",
      "c le",
      "c if",
      "c au",
      "d ing",
      "e len",
      "e ve",
      "f elen",
      "i se",
      "i min",
      "i mp",
      "m o",
      "n con",
      "p i",
      "p counter",
      "s pe",
      "s matchScore",
      "s can",
      "t ed",
      "v ent",
      "in clu",
      "st rc",
      "on ly",
      "si d",
      "de ad",
      "al so",
      "al pha",
      "ar ation",
      "ti re",
      "time d",
      "en tire",
      "re sid",
      "ma y",
      "end scop",
      "no wait",
      "ble m",
      "us ing",
      "alloc ation",
      "un sign",
      "ra ise",
      "ch mark",
      "ad i",
      "], \"\"",
      "print ed",
      "(\" \\",
      "Re tri",
      "max _num",
      "max Pos",
      "initial ization",
      "-- ){",
      "sim ilarity",
      "set _nest_lock",
      "el imin",
      "ri x",
      "/* --------------------------------",
      "first private",
      "20 25",
      "who le",
      "section _count",
      "pro blem",
      "_block s",
      "packag e",
      "53 3",
      ",\" %",
      "decl aration",
      "-------------------------------- ----",
      "polybench_timer_ start",
      "polybench_timer_ print",
      "polybench_timer_ stop",
      "Mu st",
      "sa felen",
      "ul ate",
      "De fault",
      "diag onal",
      "incr_ b",
      "numNodes 2",
      "computation al",
      "mu st",
      "add_ Mult",
      "3m m",
      "Ar ray",
      "Pre vent",
      "Sto p",
      "Th e",
      "ben chmark",
      "cle an",
      "cif ic",
      "cau se",
      "imp er",
      "ncon s",
      "spe cific",
      "inclu ding",
      "strc mp",
      "unsign ed",
      "],\"\" ))",
      "Retri eve",
      "max_num _blocks",
      "elimin ation",
      "/*-------------------------------- ------------------------------------",
      "1 19",
      "1 197",
      "3 5",
      "5 99",
      "5 29",
      "5 49",
      "5 83",
      "5 81",
      "6 29",
      "6 25",
      "6 61",
      "6 27",
      "7 5",
      "8 65",
      "8 63",
      "8 89",
      "8 61",
      "8 67",
      "8 69",
      "8 59",
      "8 85",
      "9 15",
      "9 13",
      "9 19",
      "9 65",
      "9 63",
      "9 89",
      "9 21",
      "9 67",
      "9 69",
      "9 71",
      "9 39",
      "9 17",
      "9 37",
      "9 73",
      "A N",
      "C on",
      "C alc",
      "D _MAX",
      "G u",
      "M is",
      "N um",
      "O N",
      "R AN",
      "U ni",
      "_ li",
      "_ threads",
      "e c",
      "f t",
      "i 1",
      "j b",
      "k b",
      "m it",
      "p sum",
      "p file",
      "t ribu",
      "w rite",
      "st er",
      "int er",
      "16 15",
      "16 13",
      "16 19",
      "16 65",
      "16 49",
      "16 21",
      "16 67",
      "16 69",
      "16 71",
      "16 23",
      "16 39",
      "16 17",
      "16 73",
      "16 75",
      "con tribu",
      "le ft",
      "om e",
      "pr ed",
      "ic t",
      "re str",
      "re mo",
      "ma ster",
      "se g",
      "15 87",
      "15 65",
      "15 63",
      "15 89",
      "15 61",
      "15 67",
      "15 69",
      "15 71",
      "15 39",
      "15 37",
      "15 35",
      "la p",
      "gra m",
      "12 29",
      "12 49",
      "12 55",
      "12 25",
      "12 57",
      "12 27",
      "12 53",
      "12 23",
      "12 59",
      "12 51",
      "128 1",
      "128 3",
      "13 29",
      "13 27",
      "13 11",
      "19 87",
      "19 29",
      "19 55",
      "19 25",
      "19 57",
      "19 61",
      "19 27",
      "19 53",
      "19 83",
      "19 59",
      "19 81",
      "19 51",
      "19 85",
      "123 1",
      "123 3",
      "99 1",
      "99 3",
      "99 7",
      "thread _li",
      "20 11",
      "65 1",
      "65 3",
      "65 5",
      "65 7",
      "65 9",
      "55 1",
      "55 3",
      "55 5",
      "55 7",
      "pro gram",
      "base d",
      "63 1",
      "63 3",
      "63 5",
      "200 3",
      "200 5",
      "200 7",
      "200 9",
      "57 3",
      "57 5",
      "57 7",
      "57 9",
      "89 1",
      "89 3",
      "89 5",
      "60 1",
      "60 3",
      "60 5",
      "60 7",
      "60 9",
      "127 5",
      "127 7",
      "127 9",
      "130 1",
      "130 3",
      "130 5",
      "130 7",
      "130 9",
      "190 1",
      "190 3",
      "190 5",
      "190 7",
      "190 9",
      "18 0",
      "18 99",
      "18 83",
      "18 81",
      "187 3",
      "187 5",
      "187 7",
      "187 9",
      "94 1",
      "94 3",
      "94 5",
      "94 7",
      "164 1",
      "164 3",
      "164 5",
      "164 7",
      "159 1",
      "159 3",
      "159 5",
      "159 7",
      "120 1",
      "120 3",
      "120 5",
      "120 7",
      "133 1",
      "133 3",
      "133 5",
      "133 7",
      "race s",
      "154 1",
      "154 3",
      "154 5",
      "193 1",
      "193 3",
      "193 5",
      "197 7",
      "197 9",
      "ul ation",
      "calc ulation",
      "newS xx",
      "newS yy",
      "gen erate",
      "consume d",
      "54 7",
      "produc ed",
      "Di ag",
      "119 9",
      "Calc ulate",
      "Num ber",
      "RAN D_MAX",
      "Uni v",
      "contribu ted",
      "restr ict",
      "thread_li mit",
      "1 49",
      "2 4",
      "5 27",
      "5 23",
      "< <",
      "A l",
      "A bor",
      "B ool",
      "C hi",
      "G A",
      "G et",
      "S i",
      "T T",
      "T ask",
      "] @",
      "_ w",
      "_ task",
      "_ 2d",
      "_ imper",
      "_ Bool",
      "a j",
      "c la",
      "c ol",
      "g g",
      "j 2",
      "k 2",
      "l ing",
      "o duc",
      "p y",
      "q q",
      "r d",
      "s z",
      "s ert",
      "t ou",
      "t ing",
      "u tion",
      "u es",
      "x 1",
      "x 10",
      "x py",
      "{ }",
      "++ ,",
      "id th",
      "-(( -",
      "?(( (",
      "alloc ate",
      "val _w",
      "val ues",
      "ex ec",
      "Write _set",
      "mis sing",
      "var iable",
      "() .",
      "() ==",
      "(((( (((((",
      "th rd",
      "schedu ling",
      "))?(( (((((",
      "sum er",
      "ment s",
      "ev en",
      "99 2",
      "out Len",
      "10 48",
      "tri gg",
      "num_ sz",
      "co e",
      "du ce",
      "pro duce",
      "]!= -",
      "tmp 1",
      "mat rix",
      "barrier_ start",
      "barrier_ init",
      "barrier_ destroy",
      "barrier_ stop",
      "_num _threads",
      "53 1",
      "match Mis",
      ".. .\\",
      "sa xpy",
      "kernel_ jacobi",
      "kernel_ adi",
      "kernel_ 3mm",
      "incr_ a",
      "gen _task",
      "nE le",
      "Pr oduc",
      "inter val_w",
      "remo ve",
      "seg ments",
      "lap se",
      "149 2",
      "Abor ting",
      "Chi ld",
      "_2d _imper",
      "col lapse",
      "tou ched",
      "x10 24",
      "exec ution",
      "trigg er",
      "matchMis smatchScore",
      "kernel_jacobi _2d_imper",
      "interval_w idth",
      ") ][",
      "4 0",
      "7 0",
      "E x",
      "E lement",
      "F unction",
      "F ib",
      "G en",
      "N ON",
      "P I",
      "P ur",
      "R ice",
      "Y iz",
      "] -=",
      "_ c",
      "_ p",
      "a x",
      "a ck",
      "b ound",
      "c il",
      "d v_",
      "f ai",
      "g a",
      "g in",
      "g ap",
      "i m",
      "i p",
      "i gin",
      "j 1",
      "k 1",
      "k ip",
      "m y",
      "m _n",
      "m _p",
      "n Diag",
      "p er",
      "q _c",
      "r 1",
      "s kip",
      "t x",
      "t ol",
      "t ter",
      "v el",
      "w e",
      "w o",
      "w ork",
      "in sert",
      "st en",
      "si tion",
      "de la",
      "it ion",
      "or igin",
      "al ing",
      "pe n",
      "le tter",
      "le vel",
      "pr e",
      "re fin",
      "ou ld",
      "se q_c",
      "lu res",
      "loc ate",
      "vo l",
      "val ue",
      "temp file",
      "omp_ set",
      "omp_ set_nest_lock",
      "sh ould",
      "num_ steps",
      "omp_un set_nest_lock",
      "du e",
      "25 6",
      "omp_get _num_threads",
      "pair s",
      "cop y",
      "sign aling",
      "nE lement",
      "po se",
      "po sition",
      "similarity Score",
      "ome ga",
      "Al locate",
      "cla use",
      "NON E",
      "Pur pose",
      "Yiz i",
      "cil _",
      "dv_ sum",
      "fai lures",
      "gap Score",
      "my tempfile",
      "m_n vol",
      "m_p dv_sum",
      "tx t",
      "sten cil_",
      "dela y",
      "origin al",
      "refin e",
      "seq_c st",
      "Allocate s",
      "' ,",
      "' ←",
      "' ↑",
      ") :",
      ") ++;",
      ") =%",
      ") ][-",
      "* ));",
      "* *)",
      "0 f",
      "0 54",
      "4 00",
      "5 6",
      "6 2",
      "6 6",
      "9 23",
      ": %",
      "> -",
      "? -((-",
      "A G",
      "A L",
      "A TT",
      "B U",
      "C TT",
      "D E",
      "D I",
      "F T",
      "F i",
      "H S",
      "H el",
      "M _",
      "M at",
      "P res",
      "R HS",
      "S te",
      "S ize",
      "S um",
      "T H",
      "T wo",
      "U P",
      "W u",
      "W en",
      "] <=",
      "] ==",
      "] };",
      "_ from",
      "_ input",
      "a c",
      "a f",
      "a me",
      "a ch",
      "a nt",
      "a ccess",
      "a il",
      "b al",
      "b ack",
      "c ti",
      "c alloc",
      "d Bug",
      "d ri",
      "e ge",
      "f lush",
      "f ail",
      "i re",
      "l ine",
      "m its",
      "n si",
      "n ing",
      "n ame",
      "o op",
      "q u",
      "r os",
      "s in",
      "s rand",
      "s ome",
      "t ra",
      "t here",
      "w ar",
      "w are",
      "x 1000",
      "{ &",
      "{ };",
      "st or",
      "st ed",
      "st private",
      "con sumer",
      "ze ros",
      "de cess",
      "de allocate",
      "al low",
      "ar dBug",
      "data set",
      "me nsi",
      "ag e",
      "re la",
      "re as",
      "se ed",
      "omp _nest_lock",
      "be t",
      "lo ad",
      "lo bal",
      "ge able",
      "no w",
      "te cted",
      "?(( (((",
      "?(( ((((",
      "la ware",
      "la stprivate",
      "tex inout",
      "ph en",
      "== =",
      "di mensi",
      "Re al",
      "max im",
      "ex it",
      "Read _set",
      "mis smatchScore",
      "set up",
      "(((( ((((",
      "100 1",
      "fin es",
      "task loop",
      "ll d",
      "check ing",
      "10 x1024",
      "rst Diag",
      "num_ refine",
      "))))?(( (",
      "20 48",
      "20 x1000",
      "cond ition",
      "fo pen",
      "49 7",
      "mer geable",
      "omp_init _nest_lock",
      "omp_destroy _nest_lock",
      "ha o",
      "No te",
      ".. .",
      "sa me",
      "De laware",
      "De fines",
      "LE FT",
      "sume d",
      "calc Fi",
      "loop s",
      "dire cti",
      "Be cause",
      "mu texinout",
      "with in",
      "erate s",
      "produc er",
      "Con sumer",
      "Con sumed",
      "Gu ardBug",
      "ON AL",
      "Calculate s",
      "GA ATT",
      "GA CTT",
      "Si ege",
      "variable s",
      "coe f",
      "coe ff",
      "Produc er",
      "Produc ed",
      "Ex pected",
      "Gen erates",
      "per s",
      "pre decess",
      "copy in",
      "stencil_ calc",
      "'← '",
      "'↑ '",
      "054 3",
      "400 0",
      "AG ONAL",
      "BU G",
      "DE BUG",
      "DI AGONAL",
      "Hel pers",
      "M_ PI",
      "Mat rix",
      "Pres ent",
      "Ste phen",
      "Wen hao",
      "_from _input",
      "ac qu",
      "af ter",
      "ant s",
      "back tra",
      "dri ver",
      "fail s",
      "line ar",
      "sin k",
      "war ning",
      "stor age",
      "rela x",
      "reas ing",
      "omp_nest_lock _t",
      "load _from_input",
      "maxim um",
      "10x1024 x1024",
      "rstDiag Element",
      "calcFi rstDiagElement",
      "directi ve",
      "mutexinout set",
      "GAATT CA",
      "Siege l",
      "predecess or",
      "acqu ire",
      "backtra ck",
      "\" %",
      "\" <<",
      "( ))",
      ") -",
      "+ \");",
      "/ (",
      "/ ((",
      "0 1",
      "0 5",
      "2 6",
      "2 8",
      "3 0",
      "3 4",
      "9 6",
      "9 7",
      "; }",
      "A n",
      "A TH",
      "A ach",
      "C o",
      "C la",
      "C ent",
      "C op",
      "D et",
      "F I",
      "G lobal",
      "I ter",
      "J o",
      "L oop",
      "P ATH",
      "R W",
      "R and",
      "S tr",
      "T i",
      "T ot",
      "T est",
      "U p",
      "W e",
      "W ith",
      "[ *",
      "[ ]",
      "] \\",
      "_ initial",
      "_ dynamic",
      "_ list",
      "_ device",
      "a b",
      "a cc",
      "a ut",
      "a using",
      "b l",
      "b s",
      "b t",
      "b us",
      "c i",
      "c lo",
      "c out",
      "c assert",
      "c arri",
      "c ausing",
      "e ad",
      "f clo",
      "g r",
      "g ma",
      "g ni",
      "g one",
      "g lobal",
      "h ic",
      "i o",
      "i ent",
      "k es",
      "m n",
      "m ist",
      "m set",
      "m ul",
      "m ilarity",
      "n de",
      "n ce",
      "n one",
      "n Matrix",
      "o ve",
      "o bt",
      "o ci",
      "p u",
      "p at",
      "p le",
      "p ing",
      "p pen",
      "q r",
      "q ue",
      "r al",
      "r ong",
      "s b",
      "s f",
      "s m",
      "s w",
      "s si",
      "s or",
      "s ug",
      "s ync",
      "s cor",
      "s core",
      "s match",
      "s qr",
      "t w",
      "t wo",
      "u re",
      "v ed",
      "v ing",
      "w time",
      "w hic",
      "w rong",
      "in st",
      "st re",
      "st able",
      "st ack",
      "st ants",
      "int o",
      "at ic",
      "on acc",
      "const ants",
      "si du",
      "ze d",
      "de le",
      "de ri",
      "or es",
      "or ization",
      "er ve",
      "er mine",
      "al read",
      "00 L",
      "dat es",
      "ti ple",
      "om atic",
      "pr es",
      "me sh",
      "me mset",
      "ic ient",
      "en su",
      "re co",
      "re que",
      "ma kes",
      "ou p",
      "be cause",
      "end l",
      "end if",
      "ge sted",
      "lu tion",
      "lu mn",
      "if y",
      "if def",
      "15 00",
      "loc ation",
      "us er",
      "te ction",
      "0000 0000",
      "la bs",
      "un able",
      "][ %",
      "index ing",
      "ver ify",
      "sp ace",
      "val id",
      "new_ pro",
      "return s",
      "an sw",
      "min ed",
      "di r",
      "]) /",
      "Re ference",
      "Re sidu",
      "is _initial",
      "\", \"",
      "max _threads",
      "initial Ti",
      "sim ulate",
      "ct orization",
      "struct ure",
      "mis smatch",
      "dec reasing",
      "() %",
      "() \\",
      "add ition",
      "omp_ is_initial",
      "std int",
      "ing s",
      "ass oci",
      "task gr",
      "ve ctorization",
      "li ke",
      "over lap",
      "ter n",
      "deter mined",
      "depe nde",
      "bu t",
      "one s",
      "ho st",
      "20 15",
      "20 40",
      "_t ol",
      "ak e",
      "Line s",
      "result s",
      "ation s",
      "ut ed",
      "pro per",
      "pro tected",
      "pro tection",
      "25 60",
      "ha ppen",
      "error _tol",
      "In sert",
      "op er",
      "ot ze",
      "** ));",
      "** *)",
      "** **",
      "** *));",
      "** **)",
      "83 2040",
      "omp_get_ wtime",
      "omp_get_ max_threads",
      "]* (",
      "]* =",
      "_nest ed",
      "51 7",
      "512 00L",
      "De tected",
      "inc reasing",
      "comp ared",
      "calc Element",
      "rect ly",
      "string s",
      "20000 0000",
      "St ores",
      "po inter",
      "so lution",
      "pha bet",
      "add_ sor",
      "Variable s",
      "Di rectly",
      "Pr oper",
      "Pr otze",
      "mo ve",
      "ted _list",
      "alpha bet",
      "Con stants",
      "Mis sing",
      "ec uted",
      "remo ving",
      "<< \"",
      "Al phabet",
      "Get s",
      "Si gma",
      "Si milarity",
      "cla ss",
      "matrix es",
      "40 96",
      "Ex ecuted",
      "Fib onacc",
      "pre determined",
      "omp_set _num_threads",
      "omp_set _dynamic",
      "omp_set _nested",
      "copy private",
      "stencil_ in",
      "ach im",
      "name space",
      "oop s",
      "allow s",
      "dimensi on",
      "dimensi onal",
      "coeff icient",
      "()) /((",
      "An y",
      "Aach en",
      "Co lumn",
      "Cla ssi",
      "Cent ral",
      "Cop y",
      "Det ermine",
      "FI LE",
      "Iter ations",
      "Jo achim",
      "RW TH",
      "Rand om",
      "Str ings",
      "Tot al",
      "Up dates",
      "With out",
      "ab ove",
      "aut omatic",
      "bl ic",
      "bus y",
      "carri ed",
      "fclo se",
      "gni zed",
      "io stre",
      "mist ake",
      "mul tiple",
      "obt ain",
      "pu blic",
      "pat tern",
      "sug gested",
      "scor es",
      "sqr t",
      "tw ice",
      "whic h",
      "inst ead",
      "dele te",
      "deri ved",
      "alread y",
      "pres erve",
      "ensu re",
      "reco gnized",
      "reque sted",
      "00000000 01",
      "new_pro c",
      "answ er",
      "Reference s",
      "Residu al",
      "initialTi me",
      "omp_is_initial _device",
      "associ ate",
      "taskgr oup",
      "overlap ping",
      "depende nce",
      "proper ly",
      "happen s",
      "Insert s",
      "pointer s",
      "add_sor ted_list",
      "Fibonacc i",
      "coefficient s",
      "Column s",
      "Classi c",
      "iostre am"
    ]
  }
}